
unsigned char g_magic_wand_model_data[] = {
  0x1c, 0x00, 0x00, 0x00, 0x54, 0x46, 0x4c, 0x33, 0x14, 0x00, 0x20, 0x00,
  0x1c, 0x00, 0x18, 0x00, 0x14, 0x00, 0x10, 0x00, 0x0c, 0x00, 0x00, 0x00,
  0x08, 0x00, 0x04, 0x00, 0x14, 0x00, 0x00, 0x00, 0x1c, 0x00, 0x00, 0x00,
  0x1c, 0x00, 0x00, 0x00, 0x74, 0x00, 0x00, 0x00, 0x34, 0x2e, 0x00, 0x00,
  0x44, 0x2e, 0x00, 0x00, 0xe4, 0x3d, 0x00, 0x00, 0x03, 0x00, 0x00, 0x00,
  0x00, 0x00, 0x00, 0x00, 0x02, 0x00, 0x00, 0x00, 0x34, 0x00, 0x00, 0x00,
  0x04, 0x00, 0x00, 0x00, 0xdc, 0xff, 0xff, 0xff, 0x12, 0x00, 0x00, 0x00,
  0x04, 0x00, 0x00, 0x00, 0x13, 0x00, 0x00, 0x00, 0x43, 0x4f, 0x4e, 0x56,
  0x45, 0x52, 0x53, 0x49, 0x4f, 0x4e, 0x5f, 0x4d, 0x45, 0x54, 0x41, 0x44,
  0x41, 0x54, 0x41, 0x00, 0x08, 0x00, 0x0c, 0x00, 0x08, 0x00, 0x04, 0x00,
  0x08, 0x00, 0x00, 0x00, 0x11, 0x00, 0x00, 0x00, 0x04, 0x00, 0x00, 0x00,
  0x13, 0x00, 0x00, 0x00, 0x6d, 0x69, 0x6e, 0x5f, 0x72, 0x75, 0x6e, 0x74,
  0x69, 0x6d, 0x65, 0x5f, 0x76, 0x65, 0x72, 0x73, 0x69, 0x6f, 0x6e, 0x00,
  0x13, 0x00, 0x00, 0x00, 0xbc, 0x2d, 0x00, 0x00, 0xb4, 0x2d, 0x00, 0x00,
  0x9c, 0x2d, 0x00, 0x00, 0x64, 0x2d, 0x00, 0x00, 0x54, 0x19, 0x00, 0x00,
  0xc4, 0x18, 0x00, 0x00, 0xb4, 0x06, 0x00, 0x00, 0x64, 0x06, 0x00, 0x00,
  0xd4, 0x01, 0x00, 0x00, 0xa4, 0x01, 0x00, 0x00, 0xbc, 0x00, 0x00, 0x00,
  0xb4, 0x00, 0x00, 0x00, 0xac, 0x00, 0x00, 0x00, 0xa4, 0x00, 0x00, 0x00,
  0x9c, 0x00, 0x00, 0x00, 0x94, 0x00, 0x00, 0x00, 0x8c, 0x00, 0x00, 0x00,
  0x6c, 0x00, 0x00, 0x00, 0x04, 0x00, 0x00, 0x00, 0xf6, 0xd1, 0xff, 0xff,
  0x04, 0x00, 0x00, 0x00, 0x58, 0x00, 0x00, 0x00, 0x0c, 0x00, 0x00, 0x00,
  0x08, 0x00, 0x0e, 0x00, 0x08, 0x00, 0x04, 0x00, 0x08, 0x00, 0x00, 0x00,
  0x10, 0x00, 0x00, 0x00, 0x28, 0x00, 0x00, 0x00, 0x00, 0x00, 0x06, 0x00,
  0x08, 0x00, 0x04, 0x00, 0x06, 0x00, 0x00, 0x00, 0x04, 0x00, 0x00, 0x00,
  0x01, 0x00, 0x00, 0x00, 0xeb, 0x03, 0x00, 0x00, 0x00, 0x00, 0x0a, 0x00,
  0x10, 0x00, 0x0c, 0x00, 0x08, 0x00, 0x04, 0x00, 0x0a, 0x00, 0x00, 0x00,
  0x03, 0x00, 0x00, 0x00, 0x02, 0x00, 0x00, 0x00, 0x04, 0x00, 0x00, 0x00,
  0x06, 0x00, 0x00, 0x00, 0x32, 0x2e, 0x31, 0x34, 0x2e, 0x31, 0x00, 0x00,
  0x5a, 0xd2, 0xff, 0xff, 0x04, 0x00, 0x00, 0x00, 0x10, 0x00, 0x00, 0x00,
  0x31, 0x2e, 0x31, 0x34, 0x2e, 0x30, 0x00, 0x00, 0x00, 0x00, 0x00, 0x00,
  0x00, 0x00, 0x00, 0x00, 0x00, 0xc4, 0xff, 0xff, 0x04, 0xc4, 0xff, 0xff,
  0x08, 0xc4, 0xff, 0xff, 0x0c, 0xc4, 0xff, 0xff, 0x10, 0xc4, 0xff, 0xff,
  0x14, 0xc4, 0xff, 0xff, 0x8e, 0xd2, 0xff, 0xff, 0x04, 0x00, 0x00, 0x00,
  0xd8, 0x00, 0x00, 0x00, 0xe9, 0x4c, 0xdf, 0xd0, 0x41, 0x00, 0xe3, 0x17,
  0xd7, 0xcb, 0x7f, 0xe0, 0xb5, 0x30, 0xda, 0xcd, 0x64, 0xae, 0xe6, 0x44,
  0xc4, 0x04, 0x57, 0xdf, 0xd4, 0xdb, 0x03, 0xef, 0x44, 0x43, 0xc0, 0x51,
  0x4e, 0xc5, 0x39, 0x1e, 0xdf, 0x3a, 0x05, 0x99, 0x7e, 0x61, 0x94, 0x57,
  0x22, 0xb7, 0x2c, 0x2a, 0xcc, 0x7f, 0x32, 0xd2, 0x5d, 0x15, 0xc6, 0x72,
  0xea, 0xdc, 0x29, 0xd4, 0xb7, 0x5b, 0x11, 0xba, 0x73, 0x04, 0xbb, 0x7f,
  0xe2, 0x9f, 0x1f, 0xea, 0xfb, 0x15, 0xfa, 0xfe, 0x3c, 0xe4, 0xee, 0xc4,
  0x10, 0x1d, 0xd6, 0xe8, 0x51, 0x5f, 0xf7, 0x40, 0x45, 0xc6, 0x4b, 0x44,
  0xe3, 0x7f, 0x68, 0xea, 0x71, 0x15, 0xb5, 0x13, 0x33, 0x02, 0x58, 0x33,
  0xcb, 0x29, 0xee, 0x9d, 0x39, 0x0c, 0x20, 0x61, 0xf3, 0x22, 0x4a, 0x14,
  0xef, 0x5c, 0x04, 0x18, 0x7f, 0xfd, 0x3b, 0x5b, 0x0c, 0x3a, 0x26, 0x07,
  0x28, 0x62, 0x02, 0x27, 0x59, 0xf6, 0x23, 0xc9, 0x44, 0x13, 0xdb, 0x27,
  0xb5, 0xff, 0x4f, 0x0b, 0x42, 0x51, 0xa9, 0x2b, 0x43, 0xcd, 0x35, 0x7f,
  0x07, 0x43, 0x61, 0xf9, 0xed, 0x6a, 0xd2, 0xf9, 0x50, 0xe5, 0x03, 0xf5,
  0x3b, 0x09, 0xf9, 0x62, 0xed, 0x04, 0x5c, 0xfb, 0xff, 0x45, 0xf2, 0x01,
  0x7f, 0x08, 0xfe, 0x6e, 0x1c, 0x03, 0x44, 0x06, 0x06, 0x51, 0xf0, 0x05,
  0x41, 0xe4, 0x32, 0x0d, 0xe5, 0x76, 0xf9, 0x04, 0x3e, 0xb1, 0xe9, 0x37,
  0xf6, 0x20, 0x3c, 0xe3, 0x04, 0x7f, 0x92, 0x08, 0x5f, 0xb0, 0x16, 0x58,
  0xa3, 0x20, 0x56, 0xfd, 0x72, 0xd3, 0xff, 0xff, 0x04, 0x00, 0x00, 0x00,
  0x20, 0x00, 0x00, 0x00, 0x8a, 0xff, 0xff, 0xff, 0xfe, 0xff, 0xff, 0xff,
  0xea, 0xff, 0xff, 0xff, 0x85, 0x09, 0x00, 0x00, 0xfd, 0xff, 0xff, 0xff,
  0x7e, 0xff, 0xff, 0xff, 0x57, 0x01, 0x00, 0x00, 0x6a, 0xff, 0xff, 0xff,
  0x9e, 0xd3, 0xff, 0xff, 0x04, 0x00, 0x00, 0x00, 0x80, 0x04, 0x00, 0x00,
  0x02, 0x37, 0x0a, 0x2e, 0xf7, 0x2c, 0xe1, 0x0d, 0x24, 0xf2, 0x17, 0x1e,
  0x27, 0x02, 0xbc, 0x3b, 0x1d, 0xf1, 0xee, 0x0d, 0x4c, 0x12, 0xc4, 0x35,
  0x1f, 0x0e, 0x2f, 0x5a, 0x0e, 0x27, 0xc8, 0x13, 0x1e, 0xdc, 0xfe, 0x53,
  0x7f, 0x1e, 0xdf, 0x16, 0xf7, 0xe5, 0x03, 0x54, 0x36, 0x32, 0xa2, 0x2d,
  0xf5, 0x0e, 0xe7, 0x16, 0x52, 0x1c, 0x36, 0x06, 0xde, 0xe7, 0xc3, 0x12,
  0x65, 0xcf, 0x25, 0xd9, 0xe8, 0xe2, 0xfa, 0x13, 0x40, 0xf8, 0xc5, 0x1f,
  0x4f, 0xf7, 0x32, 0x34, 0xf1, 0x03, 0xd0, 0x04, 0x40, 0x64, 0x0c, 0x40,
  0xb2, 0x46, 0xba, 0x4a, 0x73, 0x0b, 0x4f, 0x14, 0xb6, 0x10, 0xcc, 0x5b,
  0x22, 0x23, 0xfe, 0xf4, 0xdb, 0x2d, 0xf1, 0x1c, 0x6d, 0x32, 0x39, 0x0b,
  0x9c, 0x36, 0xc8, 0x5f, 0x60, 0x6a, 0x7f, 0x3d, 0xc6, 0x24, 0x9a, 0x68,
  0xfd, 0xfc, 0xe5, 0x19, 0xd8, 0x34, 0xc9, 0x12, 0x42, 0x48, 0x5a, 0x4a,
  0x0b, 0x5f, 0x8e, 0x45, 0x2d, 0x1a, 0x4d, 0x09, 0xd5, 0x4a, 0x9b, 0x4b,
  0x0b, 0xe9, 0x1c, 0xf1, 0x01, 0xf5, 0x00, 0xfe, 0x39, 0x27, 0x32, 0x09,
  0xcc, 0x31, 0xff, 0x30, 0xfa, 0x02, 0x37, 0x3d, 0xd9, 0x12, 0xf6, 0x1f,
  0x15, 0x2d, 0x45, 0xfa, 0xdd, 0x0c, 0x00, 0x17, 0x47, 0x57, 0x41, 0x1e,
  0xaf, 0x52, 0xdf, 0x37, 0x7f, 0x3d, 0x50, 0x1e, 0xaf, 0x3d, 0xdf, 0x3a,
  0x20, 0x1c, 0x21, 0x06, 0xed, 0xe3, 0xc4, 0xe0, 0x51, 0x65, 0x6c, 0x1b,
  0xb1, 0x2a, 0xbc, 0x3b, 0x4a, 0x0d, 0x37, 0x23, 0xcb, 0x06, 0xd4, 0xf4,
  0x10, 0x21, 0x0e, 0xe4, 0xfc, 0xf3, 0x52, 0x11, 0xf9, 0x24, 0x08, 0xf0,
  0x06, 0xf8, 0x7f, 0xff, 0xe9, 0x40, 0x04, 0xef, 0x0f, 0xf0, 0x40, 0x0d,
  0xfc, 0x10, 0x26, 0xf0, 0x04, 0x08, 0x44, 0x0a, 0x31, 0x43, 0x30, 0xf4,
  0x01, 0xf8, 0x67, 0x17, 0x16, 0x39, 0x30, 0xfb, 0x11, 0x0f, 0x68, 0x12,
  0xfd, 0x06, 0xfd, 0x13, 0xe9, 0xf3, 0x18, 0xf6, 0xfe, 0x20, 0x0e, 0x19,
  0xef, 0xfe, 0x15, 0xed, 0xf6, 0x30, 0x0c, 0xe4, 0xeb, 0x09, 0x4d, 0xe6,
  0x1d, 0x21, 0x19, 0x14, 0xd8, 0x02, 0xea, 0x1a, 0x20, 0xde, 0x32, 0x07,
  0xfd, 0x13, 0xd5, 0xee, 0xe5, 0xcf, 0xf6, 0xf6, 0xe6, 0x0d, 0x26, 0xd1,
  0x6b, 0x4b, 0x3b, 0x20, 0xe8, 0x22, 0xe5, 0x28, 0x3b, 0x0f, 0x32, 0x07,
  0xb2, 0xf5, 0xee, 0xf7, 0xc6, 0x8c, 0xe5, 0xf7, 0xa0, 0x8f, 0xd9, 0x81,
  0x5e, 0x45, 0x4f, 0x3f, 0xd4, 0x1e, 0xe6, 0x15, 0x1d, 0xf8, 0x0d, 0x30,
  0xa7, 0xe6, 0xe5, 0x03, 0xba, 0x9f, 0xc8, 0xd8, 0x99, 0x84, 0x07, 0x9c,
  0x1b, 0x20, 0x48, 0xf2, 0x13, 0x14, 0x51, 0x00, 0x01, 0x42, 0x22, 0x65,
  0x14, 0x0c, 0x3d, 0x22, 0x12, 0x3c, 0xfe, 0x50, 0x2e, 0x45, 0xeb, 0x4f,
  0x37, 0x5e, 0x16, 0x4c, 0xfe, 0x10, 0xd2, 0x50, 0x74, 0x40, 0x2b, 0x7f,
  0x27, 0x24, 0x9c, 0x76, 0x25, 0xef, 0x5d, 0x48, 0x18, 0x3f, 0xe1, 0x06,
  0x41, 0x22, 0x60, 0x02, 0x09, 0x20, 0x96, 0x1d, 0xd8, 0xd7, 0x01, 0x40,
  0x14, 0xfd, 0xd1, 0xe7, 0x31, 0xf5, 0xe1, 0x1f, 0x08, 0x03, 0xac, 0xfb,
  0x01, 0x26, 0x24, 0x0d, 0x0a, 0x0a, 0x02, 0x19, 0x0b, 0x1c, 0x3d, 0x29,
  0xce, 0x2d, 0xdb, 0x16, 0x16, 0xf6, 0x1e, 0xe7, 0xf1, 0x15, 0xa8, 0x17,
  0x25, 0x13, 0x17, 0x1b, 0xe2, 0x17, 0xe4, 0x27, 0x41, 0x1a, 0x40, 0x0b,
  0xbd, 0x2b, 0xad, 0x34, 0x2b, 0x3b, 0x24, 0x09, 0xb7, 0x40, 0xb1, 0x45,
  0x2d, 0xec, 0x20, 0x23, 0x0d, 0x19, 0xbf, 0x0c, 0x1a, 0x07, 0x2f, 0x2c,
  0xe8, 0x1d, 0x81, 0x31, 0x1e, 0x23, 0x41, 0x22, 0xfb, 0x12, 0xc8, 0x2f,
  0x01, 0xec, 0xeb, 0x00, 0x1f, 0xf8, 0x29, 0xf9, 0xef, 0x04, 0xfd, 0x02,
  0xd2, 0x10, 0xc7, 0x18, 0x38, 0x12, 0x07, 0x25, 0x07, 0x36, 0x81, 0x3c,
  0x2e, 0x20, 0x10, 0x25, 0x00, 0x14, 0xf7, 0xfb, 0x0b, 0x0f, 0x23, 0x50,
  0x1a, 0x3a, 0x93, 0x2f, 0x61, 0xf2, 0x54, 0x4a, 0xf1, 0x33, 0xab, 0x41,
  0x11, 0x03, 0x31, 0x33, 0x23, 0x1f, 0xda, 0x0d, 0x13, 0x2d, 0x37, 0x1e,
  0x13, 0x20, 0xb4, 0x34, 0x00, 0xe5, 0x1e, 0x12, 0x27, 0x0a, 0xcb, 0x21,
  0xf3, 0x2f, 0x22, 0xfc, 0xe7, 0xf3, 0xf1, 0xf7, 0x2b, 0x46, 0x37, 0x19,
  0xe8, 0xf7, 0xfd, 0x23, 0x19, 0x0d, 0x0b, 0xde, 0x03, 0x2b, 0x06, 0x14,
  0xf3, 0x1d, 0xf5, 0x18, 0x1d, 0xff, 0x2e, 0x05, 0x31, 0x37, 0x07, 0x1f,
  0x38, 0x0f, 0x3f, 0xfa, 0x0d, 0x24, 0x41, 0x38, 0x20, 0x34, 0x41, 0x36,
  0xe5, 0x1a, 0xfe, 0x07, 0x0b, 0x12, 0x55, 0xdb, 0x09, 0x3b, 0x2a, 0x15,
  0x2d, 0xe8, 0x7f, 0x1d, 0x2f, 0x3f, 0x15, 0x1e, 0x68, 0x1e, 0x48, 0x1c,
  0x31, 0x50, 0x3c, 0x34, 0x0a, 0x1c, 0x1f, 0x28, 0x22, 0xdb, 0x18, 0x0a,
  0xef, 0xfa, 0xda, 0xe5, 0xb1, 0xc4, 0xb4, 0xbc, 0x81, 0xc8, 0xd5, 0xa8,
  0x31, 0x42, 0x32, 0x2c, 0xf8, 0x2f, 0x06, 0x33, 0x0e, 0x04, 0x19, 0x23,
  0xdd, 0x0e, 0x14, 0x08, 0xb4, 0xdb, 0xbe, 0xb7, 0xa0, 0x95, 0x0f, 0xc5,
  0x2b, 0x3a, 0x4e, 0x0d, 0x00, 0x15, 0x01, 0x31, 0x37, 0x1b, 0x41, 0x05,
  0xef, 0x0a, 0xeb, 0x09, 0xdd, 0xe2, 0xdd, 0xde, 0xb1, 0xc2, 0xea, 0xec,
  0xf7, 0xe1, 0x13, 0xf8, 0xc5, 0x10, 0x81, 0xee, 0x0a, 0xe1, 0xf6, 0xf6,
  0xdd, 0xf5, 0x92, 0xf8, 0x0d, 0xce, 0xe4, 0x13, 0xdb, 0x22, 0xbb, 0x0c,
  0x33, 0x06, 0x17, 0x41, 0xca, 0x22, 0xad, 0x10, 0x3a, 0xfd, 0x1c, 0x18,
  0x03, 0x11, 0x90, 0x2e, 0x27, 0xe7, 0x01, 0x13, 0x2b, 0x0a, 0xdd, 0x01,
  0x1f, 0x2d, 0x0d, 0x3d, 0x3a, 0x47, 0x08, 0x2f, 0x4b, 0x0a, 0x49, 0x42,
  0x5b, 0x34, 0xe7, 0x32, 0x0a, 0xf1, 0xea, 0x3a, 0x51, 0x11, 0x37, 0x01,
  0xf9, 0x08, 0x0c, 0xe0, 0xf8, 0x0e, 0x70, 0xdf, 0xff, 0x41, 0x18, 0xe5,
  0xee, 0x0f, 0x75, 0xdd, 0xfc, 0x3f, 0x16, 0xfc, 0xeb, 0x01, 0x67, 0xf8,
  0x2d, 0x3b, 0x14, 0xee, 0xf3, 0x0e, 0x62, 0xfe, 0x04, 0x4d, 0x29, 0xd7,
  0xf0, 0xe4, 0x7f, 0xf6, 0xfe, 0x5b, 0x1a, 0xf6, 0xf1, 0x00, 0x76, 0x0c,
  0x12, 0x19, 0x0f, 0x1d, 0x23, 0x1c, 0x3e, 0x0f, 0xf9, 0x3f, 0x1c, 0x31,
  0x06, 0xf5, 0x40, 0x23, 0xf7, 0x2d, 0x1d, 0x13, 0xeb, 0xf4, 0x41, 0x13,
  0xfa, 0xe0, 0x08, 0x30, 0x22, 0xf6, 0x21, 0x15, 0xe4, 0xd9, 0xd0, 0x2d,
  0x65, 0x18, 0x2a, 0x00, 0xf3, 0xcf, 0xe4, 0x14, 0x57, 0x19, 0x1d, 0xe2,
  0xd5, 0xf3, 0xeb, 0x1d, 0x52, 0x07, 0x4f, 0x19, 0xd1, 0xdd, 0xe0, 0x34,
  0x7f, 0xfe, 0x42, 0x14, 0xe9, 0x06, 0xe7, 0x3b, 0x6a, 0x02, 0x30, 0xe3,
  0xfc, 0x0b, 0xf8, 0x31, 0x2f, 0x0d, 0x0b, 0xeb, 0xe0, 0xdf, 0xe5, 0x33,
  0x28, 0xd6, 0x26, 0xed, 0xf5, 0xea, 0xd9, 0x13, 0x2d, 0xe2, 0xf8, 0xd0,
  0x34, 0x34, 0x15, 0x11, 0xcc, 0x14, 0x19, 0x14, 0x3a, 0x3c, 0x4e, 0x11,
  0xb9, 0xfb, 0xe1, 0x0d, 0x0c, 0x3a, 0x48, 0xf8, 0xc2, 0x0f, 0xce, 0x4a,
  0x27, 0x53, 0x50, 0xde, 0xd5, 0x3e, 0x01, 0x2b, 0x50, 0x43, 0x4c, 0xf9,
  0x81, 0x08, 0xeb, 0x0d, 0x21, 0x33, 0x33, 0xec, 0xba, 0x1b, 0xd1, 0x20,
  0x09, 0xfd, 0x43, 0x06, 0xb9, 0x33, 0x05, 0xff, 0x41, 0x07, 0x33, 0x01,
  0xb7, 0x26, 0xe3, 0x37, 0x11, 0x00, 0x02, 0xeb, 0xc7, 0x1f, 0xd9, 0x1f,
  0x4a, 0x4a, 0x43, 0xd2, 0x8f, 0x3b, 0x01, 0x24, 0x4d, 0x68, 0x42, 0x41,
  0xac, 0x34, 0xc5, 0x27, 0x4b, 0x55, 0x4f, 0x35, 0xfa, 0x2f, 0xa2, 0x2d,
  0x29, 0x2b, 0x77, 0x1e, 0x8a, 0x07, 0xe6, 0x07, 0x3e, 0x38, 0x7f, 0x1f,
  0xad, 0x26, 0x96, 0x36, 0x23, 0x11, 0x30, 0x43, 0x29, 0x33, 0x9b, 0x45,
  0x21, 0x34, 0x1d, 0xe7, 0xd9, 0x28, 0x1a, 0xee, 0xe0, 0xcd, 0x21, 0xee,
  0xbd, 0xe9, 0xbe, 0xd9, 0xf6, 0xd5, 0xde, 0x17, 0x49, 0xf6, 0xd4, 0xe3,
  0xe4, 0xec, 0xc6, 0xa5, 0x89, 0xd8, 0x13, 0xad, 0x27, 0x48, 0x2d, 0x06,
  0x8c, 0x25, 0xc2, 0x1b, 0x33, 0x4d, 0x0e, 0x10, 0xf5, 0x0f, 0x19, 0xf1,
  0xea, 0x33, 0x1c, 0xf5, 0xc2, 0xe0, 0xe0, 0xc8, 0x59, 0x47, 0x5c, 0x4a,
  0xc3, 0x40, 0xac, 0x4e, 0x7e, 0x44, 0x7f, 0x5a, 0xda, 0x3e, 0xcf, 0x20,
  0x22, 0x11, 0x23, 0xf0, 0xc1, 0x27, 0x24, 0x30, 0x2e, 0x20, 0x1b, 0x3c,
  0xb6, 0x26, 0xd6, 0x2b, 0x1c, 0x53, 0x4c, 0x28, 0xdc, 0x28, 0x09, 0x10,
  0x2a, 0xd8, 0xff, 0xff, 0x04, 0x00, 0x00, 0x00, 0x40, 0x00, 0x00, 0x00,
  0x2b, 0xfc, 0xff, 0xff, 0x0f, 0x06, 0x00, 0x00, 0x80, 0x07, 0x00, 0x00,
  0x44, 0xfe, 0xff, 0xff, 0xe1, 0x08, 0x00, 0x00, 0x9f, 0xf9, 0xff, 0xff,
  0x5e, 0xfe, 0xff, 0xff, 0xc4, 0xfe, 0xff, 0xff, 0x15, 0xfc, 0xff, 0xff,
  0x02, 0x05, 0x00, 0x00, 0x8d, 0x01, 0x00, 0x00, 0x14, 0xfe, 0xff, 0xff,
  0xd8, 0x06, 0x00, 0x00, 0xa0, 0x00, 0x00, 0x00, 0xc8, 0xfe, 0xff, 0xff,
  0xbb, 0x06, 0x00, 0x00, 0x76, 0xd8, 0xff, 0xff, 0x04, 0x00, 0x00, 0x00,
  0x00, 0x12, 0x00, 0x00, 0xfc, 0x3b, 0x0b, 0xc8, 0x35, 0x11, 0x10, 0xfe,
  0xdb, 0xfe, 0x10, 0xe1, 0x19, 0x16, 0x3b, 0x36, 0x02, 0x2f, 0xf8, 0xe1,
  0x31, 0xf6, 0x1e, 0x09, 0xfc, 0x14, 0x1f, 0xdc, 0x3b, 0x40, 0x1c, 0xe9,
  0x19, 0xd5, 0xb8, 0xf5, 0x1b, 0xcc, 0xd2, 0xdc, 0x19, 0x38, 0x09, 0xf5,
  0x32, 0xcf, 0x02, 0xc6, 0x16, 0x0f, 0xf2, 0xb6, 0x49, 0xf7, 0xea, 0x02,
  0xeb, 0x2f, 0xf0, 0x81, 0x4d, 0x04, 0x13, 0xde, 0x0e, 0xc9, 0xe0, 0xaf,
  0xea, 0xdc, 0xd8, 0xf7, 0xf6, 0x12, 0x17, 0x97, 0x61, 0xac, 0xe7, 0xbf,
  0xd9, 0xf1, 0x19, 0x2c, 0xdc, 0x1a, 0xdf, 0xf5, 0x28, 0xfa, 0x28, 0x3b,
  0x79, 0xd4, 0xb5, 0xf7, 0xcf, 0xd1, 0xee, 0x02, 0x09, 0xda, 0xf1, 0xdb,
  0xf0, 0xf7, 0xc9, 0xfb, 0x28, 0xd6, 0xe5, 0xec, 0x3b, 0x25, 0x1a, 0x1e,
  0x0d, 0xf9, 0x2a, 0x2c, 0x31, 0x0e, 0x15, 0x0c, 0x4e, 0x2e, 0x42, 0x31,
  0xf1, 0x10, 0xee, 0x09, 0x08, 0x03, 0xf5, 0xda, 0x07, 0x20, 0x08, 0x13,
  0x14, 0x03, 0x40, 0x30, 0x11, 0xee, 0xf6, 0x48, 0x25, 0x5c, 0xe2, 0x43,
  0xda, 0x0b, 0x2c, 0xf4, 0x39, 0x08, 0x0b, 0xec, 0x50, 0x13, 0x3c, 0xe5,
  0x81, 0x46, 0x29, 0x3f, 0x4d, 0xe7, 0x11, 0x03, 0x55, 0xc5, 0x0a, 0x16,
  0xdb, 0x04, 0x39, 0xa1, 0xda, 0x41, 0x2f, 0x4a, 0xda, 0x20, 0x1f, 0xb7,
  0xd0, 0xdb, 0xdc, 0x0a, 0xd6, 0xff, 0xf6, 0xe8, 0x9c, 0x02, 0xfa, 0xa4,
  0xbe, 0xc2, 0xba, 0xf4, 0x1f, 0x16, 0xea, 0xff, 0x00, 0xed, 0x59, 0x33,
  0x15, 0x07, 0x21, 0x1a, 0x30, 0xeb, 0xd8, 0x04, 0x14, 0xed, 0x57, 0x3f,
  0x3a, 0xf6, 0x1a, 0xc0, 0xbc, 0x1e, 0xd2, 0xc0, 0xe2, 0x0e, 0xee, 0x89,
  0xe1, 0x69, 0x4b, 0xe2, 0x4f, 0xd8, 0xe1, 0x21, 0x15, 0x0a, 0xdd, 0xe5,
  0x2f, 0xd6, 0x18, 0x16, 0x16, 0x1b, 0x69, 0x13, 0x49, 0x1e, 0xce, 0x1c,
  0xe3, 0xe2, 0xfb, 0x0a, 0x58, 0xfd, 0xef, 0x29, 0x46, 0x17, 0x16, 0x03,
  0xef, 0xb7, 0xca, 0x56, 0xe0, 0x15, 0xc8, 0x19, 0xe6, 0xb0, 0xfc, 0x35,
  0xf7, 0xea, 0xb8, 0x16, 0xda, 0x29, 0x0a, 0xe4, 0x4f, 0x0e, 0xea, 0x03,
  0xf4, 0x0c, 0x18, 0xdb, 0x20, 0x06, 0x00, 0x02, 0xf2, 0xf7, 0x07, 0xff,
  0x24, 0xf0, 0xf6, 0xc8, 0xf2, 0x35, 0x04, 0xfe, 0xe6, 0xe8, 0x33, 0xfd,
  0xd8, 0xfe, 0xff, 0x1a, 0x15, 0xfb, 0xda, 0xd7, 0x0a, 0x1d, 0x01, 0x36,
  0x15, 0xf5, 0xea, 0x0a, 0x3c, 0xec, 0x0b, 0xc2, 0x60, 0x34, 0x12, 0x29,
  0x12, 0x41, 0x48, 0xf7, 0x56, 0xe4, 0xfe, 0xfb, 0xcf, 0xff, 0xdc, 0xb3,
  0x31, 0xba, 0x06, 0xe6, 0xbc, 0x32, 0xf2, 0xac, 0xe9, 0xfe, 0xe6, 0x08,
  0xdc, 0x14, 0x13, 0xf0, 0x61, 0x20, 0xe4, 0x26, 0x10, 0x32, 0xf4, 0xd1,
  0x02, 0x02, 0x28, 0x27, 0xdf, 0xc5, 0x98, 0xe8, 0xd9, 0xc0, 0xc0, 0xf0,
  0xbf, 0x15, 0xf7, 0xd6, 0x3e, 0x98, 0xaa, 0x9f, 0xf6, 0xf0, 0x25, 0x1b,
  0xe7, 0xd6, 0xf1, 0xf5, 0xf0, 0x05, 0xfa, 0x0c, 0xf6, 0xec, 0x33, 0x49,
  0x4d, 0x30, 0x16, 0xf6, 0x43, 0x2d, 0x31, 0x1c, 0x1d, 0x7f, 0x3b, 0xe0,
  0xff, 0x3c, 0x4e, 0x09, 0xe5, 0xe3, 0xc3, 0xf5, 0x02, 0xd4, 0xa8, 0xd4,
  0xf7, 0xff, 0xfe, 0x06, 0xe0, 0xca, 0xd2, 0xcc, 0x11, 0x04, 0xe5, 0x0d,
  0x12, 0xf0, 0xd4, 0xdb, 0xfe, 0x06, 0xbc, 0x1b, 0x02, 0xf2, 0x1f, 0xfd,
  0x00, 0xe8, 0x15, 0x45, 0xd5, 0x31, 0xe2, 0x17, 0xf9, 0x02, 0x08, 0x20,
  0x26, 0xed, 0xea, 0x13, 0xfb, 0x47, 0x5b, 0x25, 0x2d, 0x20, 0x54, 0xfe,
  0xfe, 0x1b, 0xc1, 0x18, 0x98, 0x62, 0x25, 0x0e, 0xd2, 0x26, 0x20, 0xd4,
  0x7f, 0x34, 0x0e, 0x24, 0xd2, 0x76, 0xf2, 0xfd, 0x8f, 0x3d, 0x46, 0x4c,
  0xbb, 0xfe, 0x23, 0x23, 0x4b, 0xf3, 0xfa, 0xd9, 0xde, 0x05, 0xdc, 0x08,
  0xa8, 0x2f, 0x5b, 0x2b, 0xb2, 0xf9, 0xdc, 0xbb, 0x15, 0xc0, 0xf1, 0xdc,
  0xbd, 0x05, 0x0d, 0x04, 0x98, 0xfa, 0x0e, 0xda, 0xdc, 0x2d, 0xff, 0x01,
  0x45, 0xde, 0x3f, 0x02, 0xfc, 0x64, 0x1f, 0x06, 0xb8, 0x44, 0x0a, 0x1c,
  0xb1, 0xf0, 0x2f, 0xff, 0x19, 0xe3, 0x11, 0xd0, 0x16, 0x15, 0x1d, 0x40,
  0xa6, 0x30, 0xeb, 0x1a, 0xfa, 0x13, 0x27, 0x17, 0x34, 0x05, 0x1d, 0xfa,
  0x23, 0x28, 0xec, 0x07, 0xf9, 0x25, 0xdc, 0x02, 0xf0, 0x04, 0x11, 0x0d,
  0x7f, 0xeb, 0x11, 0x0b, 0xfc, 0x2e, 0x1c, 0x32, 0xe4, 0x1b, 0x22, 0xfe,
  0xe3, 0x09, 0x17, 0x16, 0xe4, 0xe0, 0xf9, 0xce, 0xeb, 0xea, 0xc9, 0xfb,
  0xe5, 0x18, 0xee, 0x17, 0xfd, 0x09, 0xeb, 0x1c, 0x01, 0x11, 0x03, 0x12,
  0x14, 0x12, 0xfe, 0x4b, 0xf6, 0xe7, 0xe8, 0x16, 0xfc, 0xfe, 0x02, 0x05,
  0x60, 0x14, 0x25, 0xdd, 0x18, 0x5d, 0x05, 0xff, 0xdb, 0x06, 0xfe, 0xfa,
  0xca, 0xf0, 0x1b, 0xe8, 0x06, 0xd9, 0xd7, 0xf7, 0xf0, 0xdd, 0xdc, 0xe6,
  0xff, 0xe2, 0xf3, 0xfb, 0x09, 0x05, 0x0c, 0x0a, 0x12, 0x14, 0x00, 0x1a,
  0x17, 0x0a, 0xff, 0x01, 0x34, 0xf3, 0x04, 0x0a, 0x05, 0xf0, 0x06, 0x14,
  0x43, 0x17, 0x14, 0x09, 0xec, 0x46, 0x1b, 0x05, 0x04, 0x1e, 0x02, 0xf9,
  0xd5, 0xf7, 0x0f, 0xd7, 0x0b, 0xee, 0xe4, 0xf1, 0xd5, 0x00, 0xdf, 0xc9,
  0xf9, 0xe3, 0xf8, 0xfa, 0x61, 0xe8, 0xcc, 0x1c, 0x09, 0x42, 0xe8, 0xfc,
  0x31, 0x0b, 0x07, 0xfa, 0x79, 0xba, 0x16, 0xd4, 0x50, 0x07, 0x2d, 0x05,
  0xdc, 0x05, 0xf3, 0x33, 0x1b, 0x34, 0x08, 0xf7, 0x3d, 0xdd, 0xb6, 0xf0,
  0x1b, 0x01, 0x0e, 0x9f, 0x4a, 0x02, 0x08, 0x08, 0xea, 0x45, 0x0e, 0xcc,
  0x18, 0xd4, 0xd2, 0xd8, 0xdb, 0x0a, 0x0e, 0x67, 0x0d, 0xf4, 0xcd, 0xd3,
  0x04, 0x37, 0xd8, 0x74, 0x67, 0xd8, 0xc1, 0x06, 0xd3, 0x0f, 0x27, 0x2c,
  0x22, 0xfd, 0x10, 0xff, 0xd6, 0x49, 0xb5, 0x46, 0x12, 0x24, 0xf4, 0xd4,
  0x14, 0x2a, 0xfd, 0x9a, 0x4e, 0xe0, 0x3f, 0x24, 0x00, 0x23, 0xd6, 0x81,
  0xb8, 0x34, 0x15, 0xf3, 0xd2, 0x0e, 0x18, 0x30, 0x47, 0xc7, 0xe1, 0xbe,
  0xcb, 0x2c, 0xc1, 0x3a, 0xa9, 0x1f, 0xf0, 0xd5, 0xa7, 0x43, 0x50, 0x0e,
  0xf1, 0xfa, 0x43, 0x16, 0xfd, 0x3c, 0xef, 0x30, 0xa5, 0x55, 0x12, 0x3c,
  0xbe, 0x2c, 0x36, 0xf3, 0x1d, 0x12, 0x0b, 0x31, 0x07, 0x2a, 0x3f, 0xe4,
  0xb7, 0x28, 0x20, 0x1e, 0xc7, 0xf9, 0xe9, 0x17, 0x1c, 0xd3, 0xc4, 0xca,
  0xdd, 0x08, 0x05, 0x44, 0x03, 0xfc, 0xed, 0xfa, 0xd1, 0xf8, 0x13, 0xd0,
  0x26, 0x0a, 0x0e, 0xdf, 0xd8, 0x43, 0x03, 0xc6, 0xf4, 0x05, 0xd4, 0x1a,
  0xcd, 0x3c, 0x23, 0xe9, 0x29, 0xf3, 0x16, 0xfd, 0x08, 0x3d, 0x14, 0xe5,
  0xca, 0xff, 0xf4, 0x1f, 0xbd, 0xf9, 0xe1, 0xf1, 0xd7, 0xf9, 0xed, 0xcd,
  0xe7, 0x00, 0xba, 0xfe, 0x10, 0xbf, 0xc3, 0x03, 0xfb, 0x0e, 0x3a, 0x09,
  0x5a, 0xfc, 0x3c, 0x2d, 0x0a, 0x46, 0xfe, 0x07, 0xfb, 0x2d, 0x1d, 0x09,
  0xca, 0x1f, 0xf8, 0x0a, 0x7f, 0xe8, 0x27, 0xd3, 0xc0, 0x33, 0x05, 0xd5,
  0xff, 0x23, 0x04, 0xf2, 0xca, 0xe8, 0xf1, 0xe0, 0x0e, 0x00, 0xfd, 0xed,
  0x10, 0x0b, 0xd6, 0xe2, 0xe5, 0x2b, 0x0c, 0x06, 0xff, 0x44, 0x2f, 0xd1,
  0x4e, 0x08, 0x10, 0x17, 0x08, 0x70, 0xfd, 0xd8, 0xff, 0x20, 0x12, 0x1a,
  0xc6, 0x17, 0x20, 0xa7, 0x58, 0xcb, 0x26, 0xd8, 0x95, 0x4d, 0x0b, 0xee,
  0x99, 0x23, 0xe1, 0x0f, 0x12, 0x35, 0x2a, 0x8c, 0x29, 0x08, 0x29, 0x1f,
  0xf2, 0xec, 0x12, 0xdc, 0xfb, 0x12, 0x2d, 0x1c, 0x16, 0x32, 0x00, 0x81,
  0x30, 0x32, 0x37, 0x22, 0xe3, 0x29, 0x63, 0xaf, 0xcc, 0x12, 0x32, 0xfb,
  0x0d, 0x3e, 0x1c, 0xd3, 0x13, 0xda, 0x3c, 0x16, 0x00, 0x01, 0x29, 0xf2,
  0x99, 0x10, 0x03, 0xe7, 0x0b, 0x1d, 0xda, 0xd7, 0x15, 0xfa, 0x13, 0x07,
  0x1a, 0xff, 0xfb, 0xeb, 0xe8, 0xaa, 0xdd, 0xc3, 0x2a, 0x03, 0xee, 0xb2,
  0x04, 0x11, 0x33, 0xf8, 0x16, 0x0e, 0x34, 0xce, 0x28, 0x20, 0x04, 0x15,
  0xf4, 0x09, 0xfe, 0x11, 0x0e, 0x17, 0x21, 0x0b, 0xea, 0xe6, 0xe5, 0xe6,
  0xb4, 0x16, 0xff, 0x1f, 0x07, 0x24, 0x16, 0x1a, 0xd4, 0x07, 0xea, 0x27,
  0xec, 0xd8, 0xda, 0xb5, 0xf6, 0xed, 0xe6, 0x0b, 0x0d, 0x26, 0x27, 0x1e,
  0x56, 0x3e, 0x37, 0x17, 0x0c, 0x6a, 0xf5, 0xf2, 0x06, 0xf3, 0xf2, 0x18,
  0xeb, 0x2a, 0xf2, 0xe9, 0x17, 0xf7, 0x0f, 0x06, 0x0e, 0x16, 0xef, 0x16,
  0xc6, 0x34, 0xe3, 0x08, 0x19, 0xee, 0x0b, 0x1c, 0x30, 0x0f, 0xf4, 0x12,
  0xf2, 0x11, 0xe5, 0x1e, 0x6d, 0x1d, 0x20, 0x1f, 0x1c, 0x02, 0x0d, 0x28,
  0x17, 0x4d, 0x08, 0x23, 0x18, 0x1b, 0x11, 0x08, 0x70, 0x1d, 0x15, 0x0f,
  0x2b, 0x01, 0x14, 0x03, 0x18, 0x20, 0xf7, 0x2d, 0x2b, 0x14, 0x2b, 0x29,
  0x38, 0x15, 0x0e, 0x21, 0xbd, 0x18, 0x38, 0x10, 0x4c, 0x08, 0xf5, 0xfa,
  0xd7, 0x32, 0xec, 0x0b, 0xd2, 0xfc, 0x45, 0x06, 0xe9, 0xd2, 0x14, 0xa3,
  0x27, 0xf4, 0xd9, 0xef, 0xbd, 0x1b, 0xdb, 0xb8, 0x01, 0xdd, 0xe9, 0xf3,
  0x8b, 0xf6, 0xef, 0xa4, 0x34, 0xa3, 0xbc, 0x97, 0x81, 0x34, 0xa8, 0xa5,
  0xd3, 0xe4, 0xbe, 0xdd, 0x0e, 0x17, 0x2c, 0xc6, 0x5b, 0xdd, 0xf7, 0x24,
  0x0d, 0x53, 0x11, 0x07, 0xec, 0xf0, 0xff, 0x05, 0xdf, 0x0f, 0x03, 0x01,
  0x05, 0xd9, 0x30, 0x1a, 0x1c, 0xeb, 0x46, 0xdc, 0xff, 0xed, 0xbc, 0xf4,
  0x24, 0x2d, 0x04, 0x13, 0x17, 0xe5, 0x0c, 0x2c, 0x37, 0x07, 0x5f, 0x2e,
  0xed, 0xf7, 0x04, 0x3b, 0xb2, 0xe3, 0xea, 0x1d, 0x24, 0xda, 0xf1, 0xfe,
  0x19, 0x1e, 0x08, 0x1c, 0x0c, 0xc7, 0xce, 0x2b, 0x17, 0xbf, 0xd2, 0x39,
  0xd2, 0xf6, 0xde, 0xdf, 0x06, 0xcb, 0xf1, 0x19, 0x30, 0xcb, 0xa4, 0xbd,
  0xd2, 0xf1, 0xd0, 0xad, 0xd1, 0xc5, 0xae, 0xf4, 0xc2, 0xf2, 0x12, 0xb0,
  0xf3, 0x88, 0xdf, 0xdb, 0xee, 0x30, 0x28, 0x2b, 0x2f, 0xf8, 0x1e, 0xef,
  0x22, 0x09, 0x21, 0xf8, 0xf9, 0x2b, 0x30, 0x55, 0xf0, 0xe0, 0xe9, 0x4e,
  0xe1, 0x0d, 0xd4, 0x28, 0x26, 0x2e, 0xd3, 0x7f, 0x12, 0x18, 0xf8, 0xd5,
  0xf7, 0x18, 0x28, 0x1e, 0xd5, 0xef, 0xfb, 0x07, 0x1d, 0xc9, 0xe1, 0x12,
  0xff, 0x0f, 0xe7, 0x0f, 0x04, 0x02, 0xf9, 0x43, 0xc0, 0xee, 0x16, 0xf4,
  0x21, 0x00, 0x30, 0x59, 0xf7, 0x12, 0x23, 0xf1, 0xf6, 0x14, 0x1d, 0x5a,
  0xae, 0x16, 0x1b, 0xf9, 0x19, 0xf0, 0xe1, 0x3c, 0x24, 0x15, 0xe7, 0x1c,
  0xcf, 0x15, 0x40, 0x1b, 0x48, 0x03, 0x1b, 0x21, 0xe8, 0xdd, 0xce, 0x08,
  0xb2, 0x4c, 0x1c, 0x21, 0xf8, 0xe8, 0x1a, 0xdc, 0xe3, 0xe9, 0xdf, 0x1c,
  0xfe, 0xee, 0x32, 0xec, 0x2c, 0x08, 0xf4, 0xdc, 0x20, 0xde, 0xdf, 0xbe,
  0x29, 0xeb, 0x14, 0x0a, 0x07, 0xdd, 0x0b, 0xe4, 0x40, 0x08, 0x21, 0xf0,
  0xfd, 0x13, 0x04, 0xc3, 0xfa, 0x14, 0x0b, 0x00, 0xc6, 0xdf, 0xdb, 0xcb,
  0x4e, 0xf2, 0xd6, 0x0c, 0x47, 0x18, 0x0e, 0xdc, 0xe0, 0x43, 0x38, 0x54,
  0x1a, 0xee, 0x52, 0xf8, 0x52, 0x0b, 0x1c, 0x2d, 0x67, 0x14, 0x10, 0xf0,
  0xf6, 0x16, 0x49, 0x55, 0x26, 0xe6, 0x6b, 0xeb, 0x23, 0x1b, 0x52, 0x46,
  0x38, 0x22, 0x06, 0x08, 0x0c, 0x29, 0x26, 0x17, 0x20, 0x16, 0x4f, 0xdf,
  0x19, 0x30, 0x15, 0x03, 0x2f, 0xea, 0xc0, 0xad, 0x00, 0xf2, 0xcb, 0xde,
  0xcd, 0x04, 0xda, 0xc4, 0x4b, 0xfc, 0x14, 0xc0, 0xf7, 0xaa, 0x84, 0xbe,
  0x9a, 0xcd, 0xb4, 0xc2, 0xbc, 0x81, 0xaf, 0xa3, 0x32, 0xb9, 0x10, 0xa6,
  0x23, 0xeb, 0xd9, 0xe5, 0xd8, 0x0a, 0x0e, 0x05, 0x0c, 0xee, 0xfb, 0xc9,
  0x0d, 0x06, 0xf2, 0xb2, 0xd3, 0xf9, 0x08, 0x33, 0xfe, 0xe7, 0xf8, 0xf9,
  0x17, 0xf1, 0xd2, 0x3f, 0x09, 0x10, 0xb6, 0xc8, 0xff, 0x0c, 0xf9, 0x4a,
  0x31, 0x0f, 0x16, 0x01, 0x3d, 0x41, 0x09, 0x54, 0x0f, 0x22, 0xb1, 0xe9,
  0xfe, 0xbd, 0xee, 0x40, 0xc3, 0x07, 0xec, 0xff, 0xf8, 0xfd, 0xd9, 0x44,
  0x1a, 0xd7, 0xb7, 0xd9, 0xf1, 0xf3, 0xe0, 0x29, 0xb6, 0x3a, 0x16, 0x1e,
  0x25, 0xe6, 0xef, 0x51, 0x21, 0x07, 0xfa, 0xdc, 0x57, 0xfa, 0x1d, 0x66,
  0xd7, 0x4e, 0x1b, 0x30, 0x59, 0x06, 0x45, 0x5e, 0x13, 0xd2, 0x17, 0x23,
  0x00, 0xfe, 0x0c, 0x67, 0xe7, 0xf7, 0xf6, 0x3b, 0xf8, 0x1c, 0x04, 0x5a,
  0x0c, 0xbc, 0xe7, 0x12, 0x45, 0x06, 0xcc, 0xcb, 0x81, 0x14, 0xe1, 0xf3,
  0xd5, 0x9c, 0xdc, 0xeb, 0x0f, 0xc8, 0x10, 0xcb, 0x11, 0x07, 0x00, 0xed,
  0x0e, 0x1b, 0x2e, 0x10, 0x10, 0x26, 0x16, 0xfb, 0x10, 0xf7, 0xf9, 0xef,
  0x0c, 0x27, 0x1e, 0x0c, 0xc0, 0x0b, 0x3b, 0xf4, 0x18, 0xfc, 0xea, 0xdd,
  0xd0, 0x21, 0xd1, 0xfa, 0x3a, 0x18, 0xc1, 0xc7, 0xee, 0x06, 0x13, 0x12,
  0xf4, 0x0e, 0xfc, 0x81, 0x6a, 0xa5, 0xf6, 0x0a, 0x4a, 0xc7, 0xd2, 0xe3,
  0xf7, 0x14, 0xca, 0xee, 0xfa, 0x13, 0x23, 0xd9, 0x2f, 0xf7, 0xe6, 0x12,
  0xf9, 0xc3, 0x01, 0xd9, 0x27, 0xea, 0xe7, 0xd6, 0xec, 0xe6, 0xea, 0x1d,
  0x3d, 0xc9, 0xc9, 0xcb, 0xe1, 0xe4, 0xe3, 0xee, 0xf6, 0xcb, 0x19, 0xf3,
  0x0c, 0x2f, 0x28, 0xfd, 0x5a, 0xde, 0xc0, 0x10, 0xc1, 0xc0, 0xfa, 0xd0,
  0x0b, 0xc8, 0xcd, 0xc6, 0xb0, 0xe0, 0x0f, 0xcd, 0x46, 0xbe, 0x9f, 0xec,
  0x2e, 0x27, 0x26, 0x12, 0xd7, 0x26, 0x26, 0x3d, 0x21, 0x9d, 0xc0, 0xc2,
  0x21, 0xfb, 0x06, 0x0e, 0xb7, 0x4d, 0x47, 0x1e, 0x77, 0xf3, 0x4a, 0x20,
  0xef, 0xfb, 0xd7, 0xf5, 0xc6, 0x72, 0x2d, 0x2a, 0xc5, 0xfe, 0x1e, 0x10,
  0x3d, 0x21, 0xf7, 0x16, 0xd5, 0x35, 0xf8, 0xc8, 0xea, 0x17, 0x0e, 0x14,
  0x43, 0x21, 0xf5, 0xb5, 0xb6, 0x04, 0x0f, 0x59, 0x0d, 0xd6, 0x35, 0xd4,
  0x3e, 0xe9, 0x45, 0x19, 0x48, 0xe3, 0xde, 0x15, 0x12, 0x14, 0xe5, 0xed,
  0xfb, 0x06, 0x0e, 0xe4, 0x35, 0xea, 0x18, 0x07, 0x4c, 0xe6, 0xb6, 0x36,
  0xc6, 0xdb, 0xa4, 0xf5, 0x20, 0xc5, 0x07, 0x26, 0x7f, 0xa8, 0x0a, 0xd0,
  0x11, 0xc9, 0xe5, 0x29, 0xb1, 0x22, 0x07, 0xdc, 0x30, 0xc2, 0xe7, 0x27,
  0x5f, 0xd4, 0xef, 0xfe, 0xfd, 0x0c, 0x2d, 0x3c, 0x22, 0x18, 0x01, 0x03,
  0xf8, 0xec, 0xf7, 0x0d, 0x10, 0xf7, 0x11, 0x46, 0x01, 0x0d, 0x02, 0x08,
  0x1c, 0x36, 0x04, 0x34, 0xea, 0xf6, 0x53, 0x37, 0x48, 0xd1, 0xc3, 0xd1,
  0x05, 0xf6, 0xdd, 0xdb, 0xe9, 0xe3, 0xf0, 0xfc, 0xc4, 0xc6, 0x17, 0x0c,
  0x64, 0xda, 0xe1, 0xde, 0xfe, 0xfc, 0x27, 0xc3, 0x28, 0x01, 0xfa, 0x18,
  0xfa, 0x37, 0xbb, 0xfa, 0x22, 0xe0, 0x17, 0x0e, 0x09, 0x38, 0x33, 0x1a,
  0xd2, 0x30, 0x3c, 0x2f, 0xfe, 0x07, 0x20, 0xbb, 0xf4, 0x00, 0x07, 0x27,
  0x1c, 0xf8, 0x1c, 0xd2, 0xce, 0x03, 0xf3, 0xde, 0x1b, 0xd6, 0x6d, 0x0a,
  0xc5, 0x27, 0x06, 0x20, 0xcd, 0xff, 0xfe, 0x41, 0x0b, 0x21, 0xed, 0x07,
  0x14, 0x25, 0x02, 0x34, 0xa0, 0x56, 0x25, 0x1f, 0xf1, 0xfe, 0xfb, 0x2d,
  0xce, 0xef, 0xf3, 0x02, 0x4a, 0xf3, 0xf0, 0x5d, 0xed, 0x02, 0xf7, 0x30,
  0x28, 0xd3, 0xf6, 0x20, 0xc4, 0xea, 0xde, 0x01, 0x15, 0x0b, 0x05, 0xea,
  0x3b, 0x0b, 0xe8, 0x11, 0xb5, 0x12, 0xfb, 0x33, 0x19, 0xeb, 0xd8, 0xb7,
  0xd8, 0xff, 0xa8, 0x07, 0xb3, 0x1e, 0x05, 0xfb, 0x05, 0xe3, 0x14, 0x50,
  0x13, 0x20, 0xf6, 0xde, 0x14, 0xff, 0x8f, 0x50, 0x08, 0x12, 0xfb, 0xe6,
  0xfb, 0x01, 0x18, 0x2c, 0xff, 0x06, 0x0c, 0xf2, 0x0f, 0xf6, 0x19, 0x1f,
  0x21, 0xf4, 0x0b, 0x15, 0xc8, 0x15, 0x16, 0xec, 0x7f, 0xe3, 0x07, 0x04,
  0x12, 0x3c, 0x2b, 0x29, 0xdb, 0x18, 0xcc, 0x1e, 0xcf, 0xf5, 0xfa, 0x1e,
  0x01, 0xb8, 0xd1, 0xe4, 0x08, 0xda, 0xfc, 0x39, 0xcf, 0x29, 0xfd, 0xf8,
  0xfa, 0xe4, 0x13, 0x34, 0xc8, 0xf0, 0xd9, 0x0b, 0x20, 0xeb, 0x03, 0x1d,
  0x1b, 0xfb, 0xf6, 0x14, 0xfe, 0x0d, 0x1b, 0xb8, 0x2e, 0x09, 0x17, 0x1f,
  0xf5, 0xf1, 0x03, 0x05, 0xd0, 0x2a, 0x1a, 0x02, 0x1e, 0x2c, 0x0a, 0xc2,
  0x0f, 0xfc, 0x37, 0x2e, 0xf8, 0x25, 0x27, 0xbf, 0x86, 0xec, 0x1b, 0x10,
  0x1c, 0xf5, 0xe2, 0x38, 0x00, 0x1e, 0xf5, 0xf1, 0xee, 0xd3, 0x23, 0x41,
  0xec, 0x13, 0xff, 0x2c, 0x18, 0x0c, 0xeb, 0xe7, 0xd8, 0x10, 0x0f, 0xe7,
  0xf7, 0xf2, 0xdd, 0xc8, 0xea, 0xde, 0xfa, 0xd5, 0x55, 0xf9, 0x05, 0xda,
  0xf4, 0x11, 0xe3, 0x1f, 0x06, 0x00, 0xfb, 0xb9, 0x62, 0xfa, 0xf6, 0x11,
  0x29, 0x30, 0xec, 0xc7, 0xd6, 0x2c, 0x01, 0xfc, 0xf2, 0xe3, 0x3f, 0xaa,
  0x50, 0xdf, 0xd6, 0xdd, 0x1e, 0x0d, 0xf0, 0xd0, 0xe6, 0x07, 0x15, 0xe1,
  0x04, 0xfa, 0xbe, 0x81, 0xf2, 0xc8, 0xec, 0x0c, 0x45, 0x13, 0x0c, 0xb5,
  0xfa, 0x2e, 0x1f, 0x2e, 0x0f, 0xed, 0x29, 0xae, 0x33, 0xca, 0x1f, 0xfe,
  0x1f, 0x20, 0x0c, 0xcb, 0xe9, 0x14, 0x08, 0x18, 0xfc, 0xe6, 0x13, 0xc5,
  0x45, 0xe7, 0x12, 0x0c, 0xee, 0x16, 0x1c, 0xf2, 0x00, 0x06, 0x1f, 0x10,
  0xec, 0x24, 0x04, 0x0a, 0xf2, 0x01, 0xe8, 0xfa, 0xff, 0xf4, 0x10, 0x01,
  0x07, 0x05, 0xf5, 0xeb, 0x13, 0x0c, 0xd3, 0xf2, 0x10, 0xfe, 0xe3, 0x04,
  0x0e, 0xff, 0x0b, 0x0f, 0x06, 0x10, 0x21, 0x28, 0xf4, 0x00, 0xf6, 0x21,
  0x16, 0x13, 0xef, 0x0d, 0xf3, 0x34, 0xfd, 0xe3, 0x04, 0xf3, 0x28, 0xff,
  0x13, 0x17, 0x1b, 0xf2, 0xde, 0x21, 0xf1, 0x0b, 0xe8, 0x3c, 0x20, 0x01,
  0xdc, 0x19, 0x2b, 0xfa, 0xf4, 0xff, 0x04, 0xf4, 0x81, 0x20, 0x38, 0x29,
  0xee, 0xff, 0x10, 0x0b, 0xf7, 0x0a, 0x1d, 0xf5, 0xf1, 0xed, 0xee, 0xfd,
  0xb9, 0x31, 0x1f, 0x16, 0x03, 0x21, 0x0a, 0xe0, 0x0b, 0xfb, 0x16, 0x2f,
  0x04, 0xfe, 0x02, 0x01, 0xd9, 0xff, 0x04, 0x03, 0x00, 0x20, 0x07, 0xf1,
  0x03, 0xf3, 0x31, 0xf4, 0x20, 0xe2, 0x22, 0x09, 0xa0, 0x18, 0x23, 0x26,
  0x07, 0x05, 0xfb, 0x0a, 0xc3, 0xfd, 0x0e, 0xfa, 0xf4, 0xf3, 0x26, 0x07,
  0xcf, 0x29, 0xf7, 0x00, 0xfd, 0xbe, 0xd2, 0x35, 0xfc, 0xec, 0xe1, 0xe1,
  0x1b, 0x31, 0xbe, 0x15, 0x2a, 0xf9, 0xd4, 0x02, 0xca, 0x1e, 0x3d, 0xc2,
  0x68, 0xf0, 0x3e, 0x34, 0xf2, 0x59, 0x7a, 0x01, 0x01, 0x3f, 0x3c, 0x35,
  0xf9, 0x3d, 0x30, 0x81, 0x0d, 0x1c, 0x09, 0x3f, 0xdc, 0xf6, 0x67, 0xd7,
  0xda, 0x02, 0x1a, 0x4d, 0xc8, 0xff, 0xe0, 0x04, 0x2c, 0x09, 0xc5, 0x02,
  0x0f, 0x2b, 0xd3, 0x2c, 0x40, 0xff, 0x07, 0x29, 0x1d, 0xf3, 0x0b, 0xc3,
  0x0d, 0x03, 0xef, 0x0b, 0xef, 0x17, 0xbe, 0xd0, 0x0f, 0x1d, 0x29, 0xd9,
  0x32, 0x1e, 0xe8, 0xcc, 0xd2, 0xf0, 0xfe, 0x2b, 0x27, 0xf9, 0xde, 0xa9,
  0x0b, 0xf3, 0x10, 0xfd, 0x14, 0xc7, 0x07, 0x13, 0xda, 0xed, 0xb3, 0xc1,
  0x30, 0x29, 0x09, 0x20, 0x23, 0xc0, 0x00, 0xef, 0x33, 0xa8, 0xb8, 0x14,
  0xec, 0xef, 0xc9, 0xdc, 0x3e, 0xd6, 0x49, 0xff, 0x76, 0x9c, 0xa2, 0xfd,
  0x31, 0xcb, 0xe4, 0xfc, 0x19, 0xec, 0xd2, 0x2e, 0x0b, 0xf6, 0xdf, 0x3b,
  0x55, 0xfe, 0xff, 0xbd, 0xd5, 0x13, 0x17, 0x05, 0x45, 0xfa, 0x1e, 0xe5,
  0xff, 0x04, 0xe3, 0x23, 0xe3, 0x52, 0x03, 0x10, 0x16, 0x1d, 0x14, 0xfe,
  0x34, 0x27, 0xfd, 0xff, 0x05, 0x41, 0x20, 0xf7, 0x1c, 0x10, 0x35, 0x0f,
  0x08, 0xf4, 0xc6, 0xc1, 0xf7, 0xc6, 0xcb, 0xda, 0xc0, 0xcd, 0x15, 0xdf,
  0x4c, 0xe3, 0xf1, 0xc6, 0x10, 0xf7, 0x08, 0x0a, 0x27, 0x18, 0x14, 0x0a,
  0x37, 0x0b, 0xd8, 0x23, 0xfc, 0x13, 0x39, 0x24, 0x4f, 0x16, 0x0d, 0xdf,
  0x25, 0x08, 0x17, 0x26, 0x1d, 0x6f, 0x55, 0xd8, 0x4d, 0x17, 0xf0, 0x02,
  0xde, 0xe7, 0xbe, 0xbd, 0xd1, 0xbe, 0xa8, 0xd5, 0xbb, 0xbd, 0x08, 0xbe,
  0x40, 0xa3, 0x81, 0xde, 0xe7, 0x3d, 0x47, 0x21, 0x3c, 0xef, 0x2f, 0x2c,
  0x16, 0x3d, 0x0c, 0x04, 0xdd, 0x02, 0x07, 0x41, 0x18, 0xd9, 0x10, 0x02,
  0x67, 0x22, 0xf5, 0xef, 0xe9, 0x76, 0x25, 0xf1, 0x4b, 0x0d, 0xef, 0xf2,
  0xa8, 0x06, 0xfe, 0xe6, 0xe5, 0xa9, 0xa0, 0xd2, 0x04, 0xcd, 0xd0, 0xed,
  0x18, 0xa2, 0xdc, 0x25, 0xcb, 0xab, 0xa2, 0xd9, 0x21, 0xc7, 0x90, 0xb1,
  0xd5, 0xc7, 0xc4, 0x91, 0x0d, 0x81, 0xb9, 0xbe, 0xd4, 0x01, 0xf6, 0x0d,
  0x35, 0xe8, 0xbd, 0xe7, 0x12, 0x48, 0x9b, 0xff, 0x04, 0x04, 0xc0, 0x1f,
  0xf2, 0xf4, 0x25, 0x16, 0xf3, 0x07, 0x00, 0x43, 0xf4, 0x4c, 0xf6, 0xf1,
  0x26, 0xfe, 0xbd, 0xfe, 0xaf, 0xf7, 0xca, 0xfe, 0x1a, 0xd0, 0xbd, 0xd8,
  0xf4, 0xeb, 0xe1, 0x0d, 0x28, 0xf6, 0x89, 0x03, 0xc1, 0x11, 0x32, 0x5e,
  0x5f, 0x1f, 0x05, 0xfe, 0x3e, 0x20, 0x0c, 0x71, 0x12, 0x4c, 0xfe, 0x6c,
  0xfd, 0xd7, 0xf2, 0x39, 0x17, 0x09, 0x04, 0x0a, 0x0f, 0x33, 0xce, 0x3c,
  0x02, 0x1b, 0x3e, 0x2b, 0xd8, 0x18, 0x23, 0x1e, 0xff, 0xf3, 0x0e, 0x22,
  0xe6, 0xbf, 0x0c, 0x1c, 0x02, 0x20, 0x09, 0x09, 0x05, 0x2e, 0x24, 0x40,
  0x3b, 0x1d, 0x2a, 0x1a, 0x42, 0x24, 0xf0, 0x1d, 0x22, 0x1e, 0xe5, 0x2c,
  0xf1, 0xd4, 0xde, 0xe6, 0xe3, 0x13, 0xe1, 0x0c, 0xfa, 0xf8, 0x25, 0x30,
  0x07, 0xe5, 0xfa, 0x07, 0x18, 0x49, 0x21, 0xe9, 0x0e, 0x35, 0x47, 0x2b,
  0x01, 0x4f, 0x20, 0x0f, 0xce, 0x10, 0xdb, 0x0d, 0x14, 0x2d, 0x1e, 0x18,
  0xf6, 0x10, 0x12, 0x15, 0xf9, 0x27, 0x31, 0x47, 0xb5, 0x22, 0x2e, 0x0c,
  0x26, 0x10, 0x03, 0x24, 0xbe, 0x25, 0x1a, 0x23, 0x15, 0xdb, 0x11, 0x36,
  0xe2, 0x27, 0x41, 0x3f, 0xf5, 0x1e, 0x3f, 0xc8, 0x0e, 0x2d, 0x25, 0x13,
  0x07, 0x09, 0xe3, 0xca, 0xb1, 0x26, 0x4a, 0x4e, 0x0b, 0x06, 0x17, 0x11,
  0x1f, 0x2e, 0x32, 0xec, 0xf9, 0x0e, 0xec, 0xb2, 0xde, 0x04, 0x2d, 0xe8,
  0x22, 0xad, 0x8c, 0xcf, 0xc0, 0x08, 0xa5, 0xa3, 0xcb, 0xe7, 0xd2, 0xac,
  0x37, 0xb3, 0xdd, 0x90, 0x01, 0x02, 0x42, 0xfa, 0x0d, 0x11, 0x11, 0x0d,
  0xd2, 0xfe, 0x32, 0x05, 0xa2, 0x4f, 0x19, 0x23, 0xbc, 0xe5, 0xa8, 0x9f,
  0xf2, 0xd7, 0xf1, 0xaa, 0x8c, 0xe4, 0xc9, 0xc4, 0xd3, 0x01, 0x06, 0x81,
  0xe7, 0xa5, 0x84, 0xb4, 0xc2, 0xc9, 0xa2, 0xac, 0xd8, 0x02, 0xc8, 0xd3,
  0x14, 0x94, 0xa2, 0xca, 0x29, 0x00, 0xc0, 0xc8, 0xdb, 0x28, 0xd6, 0x21,
  0xf0, 0xea, 0x1d, 0xb8, 0x4d, 0xf4, 0x1c, 0xc2, 0xdb, 0xa8, 0xd2, 0xde,
  0x07, 0xc6, 0x95, 0x8c, 0xb8, 0x05, 0xa8, 0xda, 0x14, 0xfa, 0xc2, 0xbd,
  0x1b, 0x34, 0x4a, 0x66, 0xe9, 0x34, 0xe7, 0x4f, 0x3b, 0xfb, 0xf2, 0x5d,
  0x2d, 0x2a, 0xf1, 0x32, 0xd2, 0x10, 0x23, 0xf5, 0x17, 0xc5, 0x03, 0xe3,
  0xef, 0xf9, 0xb6, 0x04, 0xe2, 0x4b, 0x16, 0xf4, 0x81, 0xf6, 0x09, 0xc9,
  0x14, 0xb5, 0xd8, 0xeb, 0xa4, 0x0f, 0x2e, 0xb2, 0x06, 0xfd, 0x03, 0xfa,
  0x04, 0xfe, 0x19, 0x08, 0x68, 0xdb, 0xd4, 0xe8, 0x1a, 0x0a, 0xb8, 0x2b,
  0x30, 0xe0, 0x3b, 0x06, 0x96, 0x0f, 0x51, 0x16, 0x26, 0xdf, 0xe5, 0x04,
  0xe9, 0x2a, 0xba, 0x11, 0xb3, 0x42, 0x63, 0x2a, 0x17, 0x3f, 0x32, 0xd7,
  0x4b, 0x0a, 0x31, 0x0b, 0x0c, 0xe6, 0x28, 0xb3, 0xa6, 0xf3, 0x51, 0x42,
  0xf3, 0x07, 0x03, 0x26, 0xee, 0xfa, 0xe1, 0x0a, 0xf3, 0x04, 0x0d, 0x36,
  0xff, 0xfc, 0xf6, 0xe8, 0xdc, 0xfb, 0x00, 0xf9, 0x4e, 0x08, 0x10, 0x04,
  0xd2, 0x1d, 0xee, 0x0c, 0x1d, 0xf2, 0xa8, 0xe1, 0x97, 0x13, 0x0c, 0xf1,
  0x4d, 0xb2, 0xe8, 0xfe, 0xe1, 0x1f, 0xea, 0xfd, 0xb7, 0x0b, 0xd9, 0xf5,
  0x1a, 0x2a, 0x21, 0xf0, 0x07, 0xef, 0x27, 0xfa, 0xfc, 0x15, 0x13, 0x03,
  0x02, 0x26, 0x2f, 0x2f, 0xe2, 0x2c, 0x30, 0xe2, 0x42, 0xfa, 0x30, 0x24,
  0xfb, 0x28, 0xf7, 0xdb, 0xef, 0xf5, 0x30, 0x10, 0x04, 0x2d, 0x20, 0xff,
  0x23, 0x19, 0x2c, 0xfd, 0xfa, 0x0c, 0x44, 0x04, 0x81, 0x4b, 0x34, 0x4a,
  0x0e, 0xff, 0x25, 0xfc, 0x04, 0x2a, 0x19, 0x06, 0xf8, 0x24, 0x35, 0xdc,
  0xfe, 0x1d, 0x2c, 0x22, 0x26, 0x2b, 0xe3, 0x01, 0x07, 0x01, 0x05, 0x33,
  0xe7, 0x30, 0xf3, 0x0c, 0xde, 0x09, 0xf5, 0xe9, 0xe0, 0x1a, 0x0e, 0x26,
  0xec, 0xf2, 0x37, 0xdc, 0xfb, 0x2e, 0xee, 0x15, 0x9e, 0x3b, 0x33, 0x03,
  0xf1, 0x36, 0x28, 0xe1, 0x1d, 0x28, 0x0a, 0x00, 0x10, 0xd1, 0x0f, 0xd2,
  0xdb, 0x28, 0x16, 0x29, 0x23, 0xd5, 0xd8, 0xdb, 0xa9, 0x20, 0xe2, 0x11,
  0x0e, 0xcc, 0x25, 0x1d, 0x58, 0xdb, 0x14, 0xff, 0x07, 0x2b, 0x28, 0x16,
  0x81, 0x2e, 0x29, 0xf4, 0xf2, 0xc5, 0x03, 0x29, 0x14, 0xfc, 0xfe, 0x00,
  0xc8, 0x01, 0x17, 0xd4, 0x41, 0x06, 0x31, 0x15, 0xde, 0x1e, 0xf6, 0xf9,
  0xb0, 0x36, 0x06, 0xed, 0x6a, 0x0d, 0x0c, 0xfe, 0xcb, 0x1f, 0xe2, 0x22,
  0x2e, 0xc3, 0x11, 0xef, 0x74, 0x20, 0xe6, 0xdb, 0x38, 0x2e, 0x13, 0xc1,
  0xd5, 0x3b, 0x11, 0x17, 0xf8, 0x9f, 0x1a, 0xc0, 0x20, 0x0d, 0x21, 0xfc,
  0x04, 0x1a, 0xfb, 0xd1, 0xf0, 0x17, 0x12, 0x02, 0x10, 0xef, 0x20, 0xdc,
  0xf3, 0xca, 0x28, 0x08, 0x21, 0x01, 0x0d, 0x0e, 0xea, 0x0e, 0x07, 0x1b,
  0x29, 0xf5, 0x08, 0x04, 0xf1, 0xe4, 0x29, 0xe0, 0x2b, 0x28, 0xfe, 0x1f,
  0xbf, 0x03, 0x01, 0x26, 0x26, 0xa8, 0x06, 0x29, 0xfd, 0xec, 0x19, 0xf8,
  0x03, 0xc7, 0xd3, 0x19, 0xb4, 0x12, 0xba, 0xd6, 0x04, 0xfd, 0xfc, 0x22,
  0x32, 0xc6, 0xd3, 0xf2, 0x34, 0x23, 0xf6, 0x01, 0xf7, 0x4c, 0xf9, 0x32,
  0x00, 0xe7, 0xdc, 0xbf, 0x50, 0xfa, 0x42, 0x09, 0x3b, 0xbd, 0xac, 0xd2,
  0xe3, 0x39, 0xb3, 0xff, 0xf7, 0x26, 0xff, 0x81, 0x5b, 0xca, 0xf6, 0xee,
  0x31, 0x0a, 0xd8, 0xf5, 0x45, 0x13, 0x05, 0x24, 0x29, 0x21, 0xd3, 0xf4,
  0x49, 0xc5, 0xb7, 0xb3, 0xc4, 0x06, 0x15, 0xd7, 0x10, 0xb5, 0xf1, 0xea,
  0xc4, 0x24, 0x18, 0xcb, 0x0a, 0x02, 0xe7, 0x02, 0x9b, 0xd7, 0xe2, 0x2f,
  0x0b, 0xaf, 0xca, 0xa9, 0xfd, 0xd0, 0x00, 0x11, 0x1d, 0xb6, 0x9b, 0x06,
  0xe1, 0xf9, 0x1b, 0x4f, 0x0c, 0xdd, 0x12, 0x17, 0x1f, 0x43, 0xe0, 0x3a,
  0x56, 0xea, 0x02, 0x21, 0xe5, 0x18, 0x30, 0xd2, 0x75, 0xe8, 0x41, 0x07,
  0xe6, 0x42, 0xdc, 0xd4, 0xa3, 0x37, 0xf2, 0x05, 0x01, 0x4e, 0x29, 0x36,
  0x27, 0x09, 0x21, 0xf9, 0x0f, 0x31, 0xea, 0x20, 0x94, 0x45, 0x3b, 0x4b,
  0xe8, 0xe4, 0xf1, 0x1e, 0xdf, 0xfb, 0xdf, 0xe9, 0x31, 0x11, 0x0f, 0x57,
  0x39, 0x24, 0x3f, 0xe8, 0xbf, 0xd2, 0xc3, 0xd7, 0xd3, 0xbf, 0xda, 0xcd,
  0xb2, 0xcf, 0xd8, 0xfb, 0xe8, 0xf3, 0x9b, 0xe7, 0xe5, 0xfd, 0x13, 0x11,
  0xf8, 0xe8, 0xfb, 0x24, 0x23, 0x25, 0x0e, 0x0c, 0x29, 0x14, 0xd4, 0x00,
  0xe4, 0xf3, 0x0b, 0xdb, 0x01, 0x03, 0x05, 0x07, 0x0a, 0x0d, 0x39, 0xd4,
  0xf2, 0xdd, 0xee, 0xff, 0xf0, 0x29, 0x27, 0xe7, 0x0c, 0x00, 0x18, 0x25,
  0xf6, 0xc6, 0xc6, 0xf5, 0xd0, 0x27, 0x09, 0x27, 0x50, 0x57, 0x2d, 0x0c,
  0x2e, 0x41, 0x34, 0x36, 0xe9, 0xf4, 0x19, 0xc5, 0x9a, 0x4e, 0x7f, 0x56,
  0x11, 0x10, 0x09, 0x19, 0xd7, 0x42, 0x3c, 0x34, 0xee, 0x31, 0x42, 0xe6,
  0xef, 0x28, 0x1c, 0x11, 0x06, 0x09, 0xd6, 0xf5, 0x25, 0xee, 0xf9, 0xf5,
  0x1d, 0xf8, 0xba, 0xc8, 0xfa, 0xfe, 0xd6, 0xd1, 0x1b, 0x33, 0x16, 0xd0,
  0xfe, 0x0d, 0x35, 0x01, 0x2b, 0xdf, 0xff, 0xd9, 0xe3, 0x00, 0x19, 0x23,
  0x19, 0xf5, 0xfa, 0xe2, 0xe3, 0xe5, 0xf4, 0xef, 0x2d, 0xde, 0x27, 0xf2,
  0xe5, 0x0b, 0xfe, 0xea, 0x33, 0xf8, 0x0d, 0x1e, 0xbf, 0x28, 0x26, 0x1c,
  0x09, 0xe1, 0xd9, 0x41, 0xfc, 0xe9, 0x0b, 0x24, 0xf9, 0x18, 0x52, 0xce,
  0xf8, 0xe4, 0x1d, 0x02, 0x23, 0x30, 0x35, 0x1e, 0xe3, 0x4f, 0xf8, 0xd5,
  0xd4, 0xf9, 0x1a, 0xbd, 0x5b, 0xdb, 0x58, 0x3e, 0xd9, 0xfc, 0xe2, 0x15,
  0xba, 0xf2, 0xac, 0x32, 0x4b, 0x3d, 0xf3, 0xf4, 0xb2, 0xfc, 0x2d, 0x29,
  0x0e, 0xe8, 0x31, 0x29, 0x2f, 0x0c, 0x0c, 0xdf, 0x45, 0x56, 0x0c, 0xef,
  0xa4, 0x20, 0x47, 0x3f, 0x0e, 0xe0, 0x06, 0xf9, 0x0c, 0x12, 0x3d, 0xeb,
  0x07, 0x59, 0xf3, 0x81, 0x36, 0x07, 0x49, 0x3f, 0xe0, 0xea, 0xed, 0xa5,
  0xb4, 0xf4, 0x27, 0xd4, 0x14, 0xd4, 0xf7, 0xad, 0xe9, 0x12, 0xd8, 0xd6,
  0xcb, 0xf6, 0xbe, 0x9a, 0xf9, 0xf2, 0x0b, 0xc9, 0x2a, 0x1a, 0x2b, 0xf2,
  0xc1, 0x0a, 0x04, 0x3b, 0xe7, 0xe2, 0x35, 0xda, 0xee, 0xdd, 0x21, 0x44,
  0x44, 0x37, 0x37, 0xa8, 0x10, 0x09, 0xf5, 0x2a, 0xe4, 0x16, 0x47, 0x92,
  0xe4, 0xfd, 0x26, 0xe3, 0x13, 0xd7, 0xfd, 0x0d, 0x1e, 0x23, 0x05, 0x05,
  0x09, 0xf4, 0xe0, 0xdf, 0x18, 0xfd, 0xcf, 0xce, 0xf5, 0x1d, 0x23, 0x4d,
  0xef, 0x44, 0x0e, 0x1b, 0x20, 0x07, 0xd9, 0x0e, 0x07, 0x01, 0x3e, 0x10,
  0xef, 0x0f, 0xf5, 0x53, 0xe4, 0x2b, 0xf2, 0xe2, 0x1c, 0xe0, 0x26, 0x5a,
  0x69, 0x01, 0xe3, 0x1a, 0x09, 0x31, 0x18, 0xc6, 0x22, 0x1d, 0x2e, 0x12,
  0xcd, 0x08, 0xe0, 0x00, 0xe1, 0xf0, 0x2a, 0xf1, 0xdf, 0x0f, 0x4d, 0xc4,
  0x0a, 0x09, 0x36, 0xfd, 0xab, 0x2d, 0x02, 0x81, 0x8b, 0x33, 0x3e, 0x17,
  0x92, 0x22, 0x27, 0x63, 0x3d, 0x16, 0xe8, 0xc7, 0x0e, 0xbd, 0xd4, 0x0a,
  0xd6, 0x26, 0x05, 0x1e, 0x01, 0x3a, 0x15, 0xfa, 0x53, 0xd6, 0x2c, 0x0b,
  0xef, 0x31, 0x07, 0xe3, 0xbb, 0x22, 0x02, 0xeb, 0x0e, 0x2e, 0x2d, 0xb8,
  0x23, 0xf2, 0x42, 0x0e, 0xee, 0x3b, 0xe3, 0x9b, 0x99, 0x07, 0x22, 0xf7,
  0x17, 0x0b, 0x36, 0xf8, 0xe9, 0x28, 0x09, 0x02, 0x24, 0xd7, 0x4f, 0x24,
  0x06, 0xf8, 0xc2, 0x1e, 0x07, 0x54, 0x3c, 0x10, 0xf3, 0x25, 0x4e, 0xfc,
  0x23, 0xc0, 0x23, 0x42, 0x00, 0xf4, 0xdf, 0x20, 0xe4, 0x12, 0x03, 0xf0,
  0x43, 0xde, 0xfa, 0xef, 0xbe, 0x7f, 0x13, 0x04, 0xb2, 0x4e, 0x1c, 0xfb,
  0xed, 0x26, 0xee, 0xf7, 0x06, 0x1b, 0x0f, 0x07, 0xc2, 0xe4, 0x16, 0xbc,
  0x01, 0xd7, 0x2b, 0x21, 0x0d, 0x31, 0xf5, 0xcb, 0x15, 0xfb, 0x3a, 0x21,
  0xcc, 0xfa, 0x35, 0xbd, 0xef, 0xc8, 0xdf, 0x08, 0xdc, 0xf0, 0x0b, 0xb4,
  0x3d, 0x21, 0x12, 0x1e, 0xb8, 0x47, 0x2e, 0xc1, 0x9c, 0x3e, 0x30, 0xd7,
  0x16, 0x49, 0x3f, 0xe6, 0xbd, 0xfa, 0x30, 0x21, 0xec, 0xc2, 0x3f, 0x9f,
  0x02, 0xff, 0xe9, 0xf4, 0x44, 0x1e, 0x17, 0xd0, 0x62, 0x11, 0xfd, 0x36,
  0x06, 0x3d, 0x14, 0xbf, 0x11, 0xd8, 0xec, 0x0c, 0xed, 0x13, 0xef, 0xa5,
  0xfe, 0xf6, 0x0f, 0x18, 0x1c, 0x12, 0x06, 0xa9, 0xd9, 0xd3, 0x24, 0x30,
  0x20, 0x12, 0x14, 0xc5, 0xd3, 0xf6, 0xd2, 0xf2, 0x38, 0xb2, 0x4c, 0xe8,
  0x0a, 0x2b, 0x27, 0xf3, 0xf0, 0xea, 0x05, 0x18, 0xd9, 0x1c, 0x40, 0xf6,
  0xfc, 0xb7, 0xdb, 0x02, 0xe2, 0x4b, 0xfa, 0x11, 0x05, 0x24, 0x4e, 0x14,
  0xdc, 0x36, 0x29, 0x1a, 0x31, 0x0c, 0x21, 0x1c, 0xfb, 0x3d, 0xd2, 0xf8,
  0x18, 0x13, 0xe4, 0xef, 0x13, 0x3d, 0x07, 0x09, 0x11, 0xfd, 0x19, 0xdf,
  0xc4, 0x17, 0x0b, 0xfc, 0x23, 0x0b, 0x09, 0x02, 0xef, 0x18, 0x13, 0x25,
  0x11, 0xdd, 0xf4, 0x10, 0xf9, 0x03, 0x41, 0x0a, 0x3e, 0x40, 0x49, 0x07,
  0xaa, 0x3b, 0x1e, 0xfd, 0x1e, 0x91, 0xdd, 0xde, 0xaf, 0x1b, 0x7f, 0xfb,
  0x2b, 0xf7, 0xeb, 0xf8, 0xb1, 0x03, 0x21, 0xfb, 0x27, 0x05, 0x04, 0xee,
  0x17, 0x00, 0x0c, 0x08, 0x4e, 0xe9, 0x00, 0xe0, 0xdd, 0x42, 0x23, 0x1a,
  0x07, 0x27, 0x3a, 0xbb, 0x22, 0xe7, 0xf0, 0xc8, 0xe3, 0xe1, 0x18, 0xaf,
  0x00, 0xda, 0x1c, 0xe0, 0xe8, 0x8c, 0xf2, 0xc7, 0x9d, 0x0d, 0x07, 0x3d,
  0xea, 0xf4, 0x21, 0x06, 0xdf, 0x1b, 0x23, 0x02, 0x20, 0xc3, 0xe5, 0xf7,
  0xd1, 0x1a, 0x22, 0x20, 0xc3, 0x01, 0x0e, 0x18, 0x05, 0xfa, 0x22, 0x04,
  0xf0, 0xf4, 0xf1, 0x0d, 0x21, 0xf0, 0x01, 0xef, 0xba, 0xf8, 0xe9, 0x1a,
  0xe1, 0xfd, 0xde, 0x00, 0x09, 0x1d, 0xf7, 0x07, 0xfc, 0xe4, 0xe7, 0x1e,
  0xf8, 0xfd, 0xd5, 0xd0, 0xe5, 0xcb, 0x13, 0xea, 0x0d, 0xe4, 0x12, 0x16,
  0xe0, 0x0b, 0x0d, 0x04, 0x20, 0x13, 0xd9, 0xf8, 0xf2, 0xfe, 0x27, 0x1a,
  0x15, 0x0d, 0x1b, 0xef, 0x11, 0xdb, 0xfb, 0xd8, 0x33, 0x0f, 0x09, 0x0d,
  0xdb, 0x37, 0x0a, 0x3a, 0x3b, 0xe0, 0x28, 0x0f, 0x43, 0xd7, 0xf8, 0x2f,
  0x36, 0x01, 0xf1, 0x46, 0xdb, 0x0b, 0xf4, 0x18, 0x22, 0xe9, 0x28, 0x3b,
  0x6a, 0x0b, 0xe2, 0xd3, 0x1f, 0xf5, 0x02, 0xe9, 0xff, 0x24, 0x1b, 0x16,
  0x11, 0xf9, 0xe8, 0xff, 0x36, 0xe9, 0x26, 0xf0, 0x6c, 0xe3, 0xce, 0xef,
  0x04, 0x4c, 0x05, 0x09, 0xf1, 0xd6, 0xe2, 0xba, 0x7f, 0xe3, 0x01, 0xe3,
  0x3a, 0xef, 0xe0, 0x11, 0x51, 0x02, 0x25, 0x11, 0x00, 0x1c, 0xfd, 0xfe,
  0x39, 0xd7, 0xc4, 0x08, 0xa8, 0x1c, 0x2c, 0xe8, 0x3d, 0xe1, 0xd8, 0xf5,
  0xd7, 0x16, 0xd7, 0xf4, 0xda, 0x2a, 0xe9, 0xdb, 0xc9, 0x40, 0x48, 0x04,
  0x7f, 0x18, 0x1b, 0x2b, 0x27, 0x37, 0x22, 0xd8, 0xd1, 0x49, 0x1e, 0x37,
  0xea, 0xc3, 0xcc, 0x05, 0x3c, 0xd3, 0xc0, 0xb5, 0xce, 0x2c, 0x31, 0x32,
  0x5b, 0xe2, 0xf3, 0xda, 0xf3, 0xea, 0xef, 0xc0, 0x16, 0xec, 0x0c, 0x17,
  0xdb, 0x41, 0xfe, 0xfe, 0xd1, 0x22, 0xee, 0x16, 0x12, 0x1b, 0x50, 0xcd,
  0x4c, 0x0d, 0x0b, 0x15, 0x17, 0x37, 0x3b, 0xa5, 0xda, 0x17, 0x19, 0x69,
  0xff, 0xa8, 0xe9, 0x9d, 0x4d, 0xd8, 0xf9, 0xd1, 0x82, 0x28, 0xf7, 0xb2,
  0x35, 0xdf, 0xb4, 0xd7, 0xff, 0x0b, 0x2f, 0xee, 0x32, 0x02, 0xf2, 0x2b,
  0xf3, 0x1e, 0x44, 0xf9, 0x08, 0x0e, 0xfa, 0xe9, 0x14, 0xeb, 0x39, 0xfc,
  0x30, 0xf8, 0xd5, 0x17, 0xf1, 0x31, 0xd2, 0x07, 0x0e, 0x03, 0x29, 0x36,
  0x18, 0xe2, 0x05, 0xe1, 0x10, 0xde, 0xfb, 0xdf, 0xf3, 0x0f, 0x24, 0xf7,
  0x11, 0x14, 0x03, 0xed, 0x82, 0xea, 0xff, 0xff, 0x04, 0x00, 0x00, 0x00,
  0x80, 0x00, 0x00, 0x00, 0xb2, 0x03, 0x00, 0x00, 0xe9, 0xfd, 0xff, 0xff,
  0xb5, 0x01, 0x00, 0x00, 0x99, 0xff, 0xff, 0xff, 0x44, 0x01, 0x00, 0x00,
  0xbc, 0x02, 0x00, 0x00, 0xd3, 0x02, 0x00, 0x00, 0xfc, 0xfe, 0xff, 0xff,
  0x5e, 0x02, 0x00, 0x00, 0x93, 0x01, 0x00, 0x00, 0x02, 0x01, 0x00, 0x00,
  0xed, 0xfd, 0xff, 0xff, 0xe9, 0x02, 0x00, 0x00, 0x88, 0x02, 0x00, 0x00,
  0x62, 0xfe, 0xff, 0xff, 0x47, 0xfe, 0xff, 0xff, 0xee, 0xfe, 0xff, 0xff,
  0x9b, 0x01, 0x00, 0x00, 0xe3, 0x02, 0x00, 0x00, 0x27, 0x03, 0x00, 0x00,
  0x69, 0xfd, 0xff, 0xff, 0x10, 0x02, 0x00, 0x00, 0x5d, 0x00, 0x00, 0x00,
  0x61, 0xff, 0xff, 0xff, 0xa5, 0x03, 0x00, 0x00, 0xdd, 0xfe, 0xff, 0xff,
  0x55, 0xff, 0xff, 0xff, 0x11, 0xff, 0xff, 0xff, 0xbc, 0x00, 0x00, 0x00,
  0x54, 0xfc, 0xff, 0xff, 0xac, 0x00, 0x00, 0x00, 0x4e, 0x03, 0x00, 0x00,
  0x0e, 0xeb, 0xff, 0xff, 0x04, 0x00, 0x00, 0x00, 0x00, 0x14, 0x00, 0x00,
  0xf2, 0x10, 0xf6, 0x1a, 0xf9, 0xf3, 0xfb, 0x11, 0x11, 0x12, 0xfb, 0x13,
  0x03, 0x06, 0xf9, 0xe2, 0x00, 0x03, 0x0d, 0x10, 0x14, 0x04, 0x0e, 0x03,
  0xf3, 0xf5, 0xe4, 0xf5, 0xf5, 0xfc, 0xf9, 0x09, 0xfd, 0x03, 0xef, 0x1b,
  0xed, 0xde, 0x12, 0xcc, 0xf7, 0xf5, 0xed, 0xf1, 0xee, 0xcc, 0xf9, 0xe8,
  0x11, 0x20, 0xdf, 0x0c, 0xf4, 0xf4, 0xee, 0x06, 0xe4, 0xf5, 0xe1, 0x01,
  0xe9, 0xf8, 0x10, 0xe2, 0x0e, 0x0c, 0x09, 0x37, 0x17, 0xeb, 0x16, 0xff,
  0xde, 0x0f, 0xba, 0xf4, 0xef, 0xeb, 0xf8, 0xe0, 0x16, 0xf7, 0xf6, 0xfc,
  0xe4, 0xe6, 0x0c, 0xfd, 0xf4, 0xf4, 0xfb, 0xf1, 0xf3, 0xfd, 0xef, 0x15,
  0x16, 0x06, 0xf9, 0x0c, 0xfe, 0x0b, 0xee, 0xf6, 0x12, 0xf4, 0xe4, 0xec,
  0xfe, 0x09, 0xfe, 0xf6, 0xfd, 0x0d, 0xe6, 0xf2, 0x09, 0x00, 0xfd, 0xed,
  0xf1, 0x09, 0xe1, 0x05, 0xfb, 0xfb, 0x02, 0x07, 0x13, 0xec, 0x0c, 0xf8,
  0x20, 0xf1, 0x1f, 0xfd, 0x04, 0x1b, 0xec, 0x1c, 0xea, 0x10, 0x01, 0x12,
  0xfd, 0xec, 0x2a, 0x18, 0x1a, 0x14, 0x05, 0x08, 0xf4, 0x01, 0x1f, 0x0d,
  0xfb, 0xf4, 0x12, 0x2a, 0xd8, 0xcb, 0xd9, 0xea, 0xfa, 0x00, 0xe6, 0xcb,
  0x14, 0xf5, 0x18, 0xef, 0x23, 0x08, 0x0b, 0xe3, 0xd9, 0x0d, 0xf8, 0xd9,
  0xf3, 0x21, 0xce, 0xd4, 0x1e, 0xb8, 0xe0, 0xf8, 0xf7, 0xfb, 0xf7, 0xed,
  0x20, 0x17, 0x1e, 0x0f, 0xf9, 0x13, 0x09, 0x25, 0x20, 0xfe, 0xe6, 0x0b,
  0xfe, 0x0d, 0x02, 0x16, 0xf8, 0x16, 0x04, 0x02, 0xfe, 0x00, 0xf3, 0xf3,
  0xe6, 0x18, 0x10, 0x1e, 0x1a, 0x04, 0xfc, 0xec, 0xef, 0xe0, 0xe6, 0xf1,
  0xe7, 0x03, 0xfe, 0x0c, 0xf1, 0xec, 0xe5, 0xec, 0x1c, 0xfb, 0x1b, 0x09,
  0x10, 0xe5, 0x00, 0x18, 0x0b, 0x19, 0x07, 0xf8, 0x03, 0xe8, 0xfb, 0x0d,
  0xfb, 0x09, 0xf8, 0xfe, 0xed, 0x1e, 0xfc, 0xf5, 0x12, 0x26, 0x03, 0x0d,
  0x09, 0x0e, 0x18, 0x13, 0xf6, 0xf3, 0x08, 0x03, 0x0e, 0x15, 0xee, 0xfc,
  0x12, 0x10, 0x05, 0x25, 0xeb, 0x03, 0x1a, 0x12, 0x03, 0x09, 0x09, 0x13,
  0x36, 0xe2, 0x03, 0xf9, 0x03, 0xfa, 0x19, 0x2a, 0x06, 0x1b, 0x22, 0xfe,
  0x29, 0x05, 0xe5, 0x0a, 0x0f, 0xee, 0xce, 0xd6, 0x09, 0x1e, 0x21, 0xef,
  0x10, 0xed, 0x19, 0x0f, 0x20, 0x06, 0x07, 0x07, 0x07, 0x19, 0x04, 0x1e,
  0xfb, 0xe7, 0x00, 0x27, 0x05, 0xf0, 0x12, 0xf8, 0x04, 0xf3, 0xf5, 0x15,
  0x0e, 0x06, 0x13, 0x46, 0x02, 0xe6, 0x11, 0xfe, 0xf3, 0x27, 0xf8, 0x10,
  0x08, 0x14, 0x13, 0x03, 0xef, 0x05, 0x00, 0xe9, 0xf3, 0xf0, 0x03, 0x15,
  0xec, 0xea, 0x03, 0x05, 0xfa, 0xf8, 0xeb, 0xf9, 0x0b, 0xfa, 0x0b, 0xf4,
  0x09, 0x0f, 0x0b, 0x05, 0x12, 0x0c, 0x08, 0x13, 0x24, 0x13, 0x16, 0x08,
  0xef, 0xf9, 0x04, 0x0c, 0x02, 0xfc, 0xe7, 0x01, 0x09, 0xc8, 0xfd, 0xf7,
  0xde, 0xe0, 0x00, 0xff, 0xf4, 0x1c, 0x18, 0xef, 0x12, 0x0f, 0x0b, 0xfb,
  0xf3, 0xff, 0x09, 0xf3, 0xf7, 0x15, 0xf0, 0xeb, 0x11, 0x0c, 0xf4, 0xee,
  0x14, 0x0a, 0x12, 0x2b, 0xec, 0xf2, 0x05, 0x03, 0x10, 0x1c, 0xf3, 0x09,
  0xf7, 0x0e, 0xff, 0xe5, 0xfb, 0xe7, 0x1a, 0x04, 0x1c, 0x06, 0x25, 0x01,
  0x1b, 0x01, 0x10, 0x13, 0x07, 0xff, 0xf4, 0x0b, 0x02, 0xea, 0xf9, 0x1a,
  0xec, 0x06, 0x0b, 0xf5, 0x02, 0xe3, 0xea, 0xfa, 0xfc, 0xec, 0xf4, 0x03,
  0x0d, 0x0f, 0xfb, 0x05, 0x12, 0x10, 0x08, 0xfd, 0x05, 0x06, 0xf9, 0x15,
  0xf4, 0xf2, 0x0d, 0x17, 0x02, 0x03, 0x02, 0x03, 0xf7, 0x0a, 0xfd, 0xe2,
  0xf3, 0x0f, 0xec, 0x0f, 0x11, 0xf4, 0x10, 0xfe, 0xed, 0xfe, 0x03, 0x08,
  0x0c, 0x07, 0xf4, 0xfd, 0x15, 0x05, 0x08, 0x16, 0x01, 0xfc, 0x18, 0x28,
  0x6a, 0xed, 0x1a, 0x05, 0xe6, 0x06, 0xde, 0xef, 0xdc, 0x18, 0xf6, 0xd7,
  0x15, 0x02, 0x6d, 0xdf, 0xe5, 0x01, 0xff, 0xe6, 0xed, 0xe5, 0x02, 0xe1,
  0xd6, 0x04, 0xeb, 0x45, 0xf9, 0x0d, 0x31, 0x1b, 0x1a, 0x11, 0x20, 0x09,
  0xae, 0xd8, 0xcd, 0x0d, 0x15, 0xf3, 0x28, 0xfe, 0xf9, 0xdb, 0x3f, 0x00,
  0x26, 0x10, 0xfd, 0xf7, 0x20, 0xee, 0xf5, 0x0f, 0xe5, 0xf4, 0xeb, 0x15,
  0x24, 0xe3, 0x2e, 0xe3, 0x08, 0x14, 0x05, 0x0d, 0x1e, 0x06, 0xd8, 0xfe,
  0x0b, 0x08, 0xe4, 0x08, 0xdd, 0xec, 0x02, 0xd9, 0x1f, 0xe9, 0xe5, 0xe5,
  0x00, 0xf5, 0xe4, 0x01, 0x08, 0x1d, 0x07, 0x09, 0x20, 0x0a, 0x0b, 0xf9,
  0x0a, 0x18, 0x1c, 0x08, 0x03, 0xfb, 0x06, 0x0e, 0x13, 0x11, 0x01, 0xfe,
  0xe6, 0x05, 0xfb, 0x12, 0xf6, 0xfc, 0xea, 0x10, 0x14, 0xee, 0xfc, 0xf0,
  0xe6, 0xec, 0xfc, 0xf4, 0xf8, 0xda, 0xed, 0xe8, 0x48, 0xe3, 0x16, 0xec,
  0xd3, 0xd4, 0xdd, 0xce, 0xdb, 0xf5, 0xbc, 0xc4, 0x08, 0xf7, 0x7c, 0xec,
  0xd6, 0xfb, 0xce, 0xf2, 0xd2, 0xab, 0xee, 0xd4, 0xf5, 0xe9, 0xc7, 0x67,
  0xfc, 0xf5, 0x0b, 0x2e, 0x2b, 0x06, 0x0e, 0xfb, 0xf7, 0xbd, 0xc4, 0xf3,
  0x02, 0x02, 0x0b, 0xf5, 0x02, 0xf9, 0x3c, 0x02, 0x1b, 0x02, 0x10, 0xdb,
  0xe7, 0x05, 0xfa, 0xfa, 0x1f, 0xf4, 0xc2, 0x1c, 0x1e, 0xe7, 0x00, 0xa8,
  0xe2, 0xb9, 0xe6, 0xd6, 0x10, 0x10, 0x01, 0xa9, 0xf5, 0xe3, 0xe7, 0xf3,
  0x10, 0xf1, 0xd9, 0xf8, 0x28, 0xff, 0x0e, 0xd0, 0x1e, 0xe0, 0xd6, 0x10,
  0xf9, 0xef, 0x01, 0x14, 0xfe, 0x03, 0x17, 0xec, 0xf6, 0x03, 0x01, 0x01,
  0x19, 0x02, 0x12, 0x02, 0x0f, 0x0d, 0x03, 0xe6, 0xea, 0x19, 0x09, 0x17,
  0xdd, 0x0f, 0xe9, 0x13, 0xf8, 0xf2, 0xff, 0xe0, 0xfc, 0xeb, 0x0a, 0x09,
  0xf1, 0xda, 0x0b, 0xb5, 0x35, 0x0b, 0x19, 0xf5, 0xe0, 0xed, 0xe9, 0xc6,
  0x07, 0x12, 0xbd, 0x08, 0xec, 0xf2, 0x17, 0xe8, 0xcb, 0xf7, 0x0f, 0xe5,
  0xf3, 0xcf, 0xfc, 0xe3, 0x10, 0xf1, 0xf8, 0x34, 0xf2, 0xe2, 0x08, 0x0a,
  0x18, 0xef, 0x1c, 0x1b, 0xea, 0x0a, 0xf1, 0xfa, 0xf6, 0xca, 0xf2, 0xec,
  0x00, 0x06, 0x27, 0x1b, 0xd3, 0x2d, 0x03, 0xf4, 0x10, 0x0e, 0x0d, 0xef,
  0x12, 0xec, 0xe8, 0x10, 0x18, 0xbd, 0x07, 0xd8, 0xf3, 0xdc, 0x11, 0x03,
  0xcc, 0xfd, 0x03, 0xe2, 0x10, 0x08, 0xe1, 0xe7, 0x1e, 0xeb, 0xfd, 0x43,
  0xfe, 0x09, 0xd6, 0xcb, 0xec, 0xd3, 0x05, 0xe0, 0xfb, 0xe7, 0xf6, 0xfc,
  0x03, 0x1f, 0x07, 0xea, 0xff, 0x18, 0x0e, 0xf2, 0x14, 0x10, 0x1c, 0x05,
  0x20, 0x12, 0xfa, 0xf9, 0xee, 0xfa, 0x06, 0x1a, 0xd7, 0x17, 0xd7, 0x00,
  0xff, 0x04, 0x0d, 0xe8, 0x04, 0xde, 0xf7, 0xfa, 0x0b, 0xfd, 0x09, 0xee,
  0xf2, 0x16, 0x0e, 0xea, 0x00, 0x03, 0x1b, 0xea, 0x09, 0x0a, 0x10, 0xdd,
  0xd4, 0x0c, 0x09, 0x0b, 0xfa, 0x08, 0x08, 0x08, 0x0f, 0x07, 0xf8, 0xcd,
  0xfb, 0x05, 0x0f, 0x10, 0x0a, 0x0e, 0x19, 0x16, 0xfe, 0x15, 0xf8, 0xf5,
  0x18, 0xfe, 0x0d, 0xff, 0x14, 0x10, 0xf0, 0xf1, 0xe8, 0xeb, 0x00, 0x28,
  0xf1, 0x2f, 0xf7, 0x06, 0x11, 0x00, 0xef, 0x04, 0xf0, 0xe0, 0x0b, 0x05,
  0x17, 0x0f, 0x03, 0xe7, 0xe9, 0x09, 0x0b, 0xf8, 0x1c, 0xfe, 0xf5, 0x0c,
  0x13, 0x24, 0xfe, 0xf6, 0xf4, 0x12, 0x06, 0xfa, 0xd8, 0x0c, 0xf9, 0x06,
  0x1c, 0xfc, 0xfd, 0x02, 0x02, 0xe8, 0x00, 0x15, 0x1c, 0x25, 0x08, 0xef,
  0x1c, 0x22, 0x00, 0x0f, 0x09, 0x1a, 0x01, 0x09, 0xfe, 0x1c, 0xf9, 0x1a,
  0xef, 0x19, 0x11, 0x14, 0xe7, 0x08, 0xf4, 0x13, 0x03, 0x19, 0xff, 0x0b,
  0x11, 0xfe, 0x21, 0x05, 0x12, 0x09, 0xec, 0x1b, 0xd8, 0xe4, 0x00, 0xfe,
  0x12, 0xf7, 0xf3, 0x04, 0xff, 0xec, 0x15, 0xee, 0xeb, 0x17, 0xb7, 0x03,
  0xee, 0xf8, 0xf2, 0x20, 0xfd, 0x04, 0x02, 0xfa, 0xe2, 0xdf, 0x0f, 0xcf,
  0xe8, 0x0b, 0xff, 0xe1, 0xf2, 0x0c, 0x05, 0x07, 0xd9, 0x1d, 0x2a, 0xfb,
  0xff, 0xee, 0x07, 0x11, 0x03, 0x0b, 0xcb, 0xee, 0xc5, 0xf1, 0x0a, 0x02,
  0xdf, 0xff, 0xfe, 0xfb, 0x02, 0x02, 0x03, 0xfa, 0x07, 0xf2, 0xe4, 0x0a,
  0xf7, 0x16, 0x0a, 0x22, 0x11, 0xdd, 0xdb, 0x0a, 0x1c, 0xfe, 0x1f, 0x0a,
  0xf5, 0xdf, 0xfb, 0x05, 0xf9, 0x10, 0xec, 0x08, 0x17, 0x09, 0x07, 0x19,
  0xfe, 0xf8, 0x08, 0xe7, 0xe2, 0xf0, 0x09, 0xd8, 0xdd, 0xf4, 0xf0, 0xe5,
  0xf4, 0xdc, 0x07, 0x08, 0xe8, 0xf3, 0xfe, 0x01, 0x03, 0xf4, 0xfc, 0xf5,
  0xf5, 0xec, 0xec, 0xee, 0x04, 0x02, 0x0f, 0xf5, 0xf2, 0xfb, 0x03, 0xf6,
  0x12, 0x0c, 0xf2, 0x12, 0xa8, 0x10, 0xdb, 0xff, 0x30, 0x2a, 0x25, 0x1a,
  0xfa, 0x21, 0x0c, 0x14, 0xf6, 0xf3, 0x81, 0xed, 0x53, 0x06, 0xfc, 0x08,
  0x11, 0x18, 0xf9, 0x05, 0x1a, 0x13, 0x0e, 0x89, 0x11, 0xf2, 0x2d, 0x08,
  0xdf, 0x20, 0x17, 0xed, 0x14, 0xc3, 0x22, 0xfb, 0x29, 0x13, 0xf1, 0xfa,
  0x0f, 0xe7, 0xf8, 0xf3, 0x33, 0x09, 0x0f, 0x16, 0x11, 0xf0, 0x08, 0xfc,
  0x09, 0x01, 0xfd, 0x09, 0x17, 0x17, 0x2d, 0xec, 0x12, 0xdd, 0x1b, 0x16,
  0xe1, 0xee, 0x1a, 0xf0, 0xa2, 0xe6, 0xd9, 0xee, 0x05, 0x07, 0xf8, 0x0d,
  0x00, 0xd9, 0x0b, 0xfa, 0xbf, 0x09, 0xf3, 0x06, 0x0a, 0xfe, 0xff, 0x23,
  0x06, 0xeb, 0x1e, 0x12, 0xe5, 0xd3, 0xf7, 0xeb, 0xe4, 0x08, 0x0d, 0xe9,
  0xda, 0xf6, 0xb9, 0x0c, 0x0b, 0xfb, 0xfc, 0xfa, 0x00, 0x01, 0xf6, 0x08,
  0xea, 0xd2, 0x13, 0xfe, 0xfc, 0x10, 0xf9, 0xf3, 0xfd, 0xf6, 0xf6, 0x23,
  0x0b, 0xdd, 0xff, 0x02, 0x0e, 0xf7, 0xfc, 0xd8, 0x0c, 0x0d, 0xfe, 0xfa,
  0x03, 0xed, 0xfb, 0xf2, 0x1e, 0xec, 0x21, 0xf0, 0x15, 0x0f, 0xe7, 0x04,
  0xea, 0xf6, 0xdd, 0xbc, 0xab, 0xe9, 0x23, 0x16, 0x06, 0xc1, 0x09, 0x02,
  0x25, 0xfc, 0xd4, 0xf3, 0x26, 0xe3, 0x08, 0xf4, 0x1e, 0x12, 0x0c, 0x02,
  0x10, 0x22, 0x2d, 0xe8, 0xd6, 0x14, 0xcf, 0x1a, 0xe0, 0x14, 0xfc, 0x1e,
  0xe9, 0x08, 0xef, 0x10, 0xf3, 0xf8, 0xec, 0x1d, 0x1b, 0x2c, 0xe8, 0xfd,
  0x26, 0x14, 0x14, 0x01, 0xef, 0x01, 0xea, 0xf0, 0x0f, 0x06, 0x26, 0xce,
  0xf0, 0xdb, 0xf4, 0xf9, 0x0f, 0xe4, 0x0f, 0xd1, 0xfb, 0xd8, 0xe4, 0xec,
  0xff, 0x04, 0xed, 0xfe, 0x02, 0x0e, 0xfe, 0xeb, 0xec, 0x0d, 0xcb, 0xda,
  0xd8, 0xe6, 0xf2, 0xe2, 0xb2, 0x00, 0xfa, 0xf5, 0xf6, 0xfc, 0xe9, 0xf5,
  0xee, 0xe0, 0xf3, 0x06, 0xf8, 0xff, 0xeb, 0xe0, 0x06, 0xfe, 0xfe, 0xdd,
  0x04, 0xf4, 0xf0, 0xdf, 0x04, 0xee, 0xdc, 0x0f, 0xf5, 0xf4, 0xed, 0xe4,
  0x0b, 0xe6, 0xe2, 0xed, 0xf4, 0x01, 0xf5, 0xe7, 0xe1, 0x01, 0x02, 0xf1,
  0x0e, 0xe1, 0xec, 0xe5, 0x03, 0xe7, 0x10, 0xc1, 0xeb, 0x94, 0xdf, 0xd2,
  0x10, 0xe3, 0x10, 0xf0, 0xf4, 0xfe, 0xe6, 0x09, 0xfb, 0x02, 0x3e, 0xbc,
  0xf1, 0xfc, 0xd8, 0xd7, 0xfe, 0xe5, 0xf3, 0xe9, 0x05, 0xe6, 0x01, 0x25,
  0xf3, 0xe2, 0xed, 0xf9, 0xee, 0x29, 0xe1, 0x07, 0xfc, 0xf0, 0x06, 0x18,
  0xe6, 0xec, 0x0d, 0x1a, 0xf2, 0xe5, 0xea, 0xfe, 0xec, 0x12, 0xfa, 0xf1,
  0x11, 0x07, 0xdc, 0x0b, 0xee, 0x02, 0xfe, 0xf8, 0x05, 0x0b, 0xfd, 0xef,
  0xee, 0xf1, 0xe6, 0xff, 0x05, 0xf1, 0x0a, 0xdd, 0x0d, 0x01, 0xfb, 0xfb,
  0xf8, 0xeb, 0xe5, 0xf5, 0xf5, 0xed, 0x0a, 0x06, 0xdf, 0x1c, 0xf3, 0xf1,
  0x04, 0x1d, 0xee, 0x1f, 0xf6, 0xfb, 0x04, 0xfc, 0x02, 0x2f, 0x12, 0x10,
  0x09, 0x06, 0xf9, 0x0f, 0x1d, 0x05, 0xe9, 0x0a, 0x1f, 0x13, 0x0e, 0x0e,
  0xff, 0x08, 0x07, 0x08, 0x0d, 0x14, 0xfd, 0x01, 0xdd, 0xfa, 0xe3, 0xe6,
  0xf0, 0xfc, 0x04, 0x08, 0xe5, 0xfe, 0xf0, 0x06, 0xf9, 0xf2, 0x13, 0x0a,
  0xf5, 0xf6, 0x93, 0xfe, 0xa9, 0xe9, 0xfc, 0x00, 0xd8, 0x03, 0xf5, 0xe5,
  0xf3, 0xf6, 0x12, 0xd4, 0xe4, 0xfd, 0xb6, 0xc8, 0xfd, 0xe4, 0x05, 0x26,
  0xf6, 0x01, 0xa5, 0x0e, 0xf5, 0x07, 0xea, 0x10, 0x04, 0xd5, 0x02, 0x13,
  0x8b, 0xd5, 0xff, 0x14, 0xef, 0x02, 0xf6, 0xfc, 0xf9, 0xec, 0xf1, 0x02,
  0xec, 0x18, 0xe8, 0xd5, 0x05, 0xe7, 0xf9, 0x01, 0xe9, 0x1c, 0x01, 0x0c,
  0xfe, 0xf3, 0xf5, 0x18, 0x1f, 0xef, 0x06, 0xf2, 0xf3, 0xfb, 0x05, 0x11,
  0x0d, 0xeb, 0x06, 0x0e, 0x0c, 0xff, 0x14, 0x0d, 0xe5, 0xfd, 0x0c, 0x16,
  0xee, 0x03, 0xe5, 0xf1, 0x1f, 0xe5, 0x0d, 0x1e, 0x09, 0xf6, 0x0c, 0xf5,
  0x05, 0xf9, 0xff, 0x06, 0xec, 0xf5, 0xfe, 0x0d, 0xfc, 0xf9, 0xef, 0x20,
  0xf3, 0xf5, 0x0e, 0xec, 0xf8, 0xfd, 0xe0, 0xfc, 0x14, 0xfe, 0x03, 0xfb,
  0xd4, 0xf0, 0x29, 0x1a, 0xe3, 0x0d, 0xfb, 0xf7, 0x10, 0x05, 0xbc, 0xfd,
  0xdd, 0xfe, 0x1d, 0x08, 0x13, 0x1a, 0x0f, 0xe6, 0x0f, 0x1d, 0x06, 0x05,
  0x95, 0xfe, 0xcc, 0xeb, 0x06, 0x16, 0xf0, 0xff, 0xca, 0x0e, 0xd6, 0x24,
  0x25, 0x05, 0x03, 0x07, 0x18, 0xd4, 0xee, 0xec, 0xfc, 0xfe, 0xfb, 0xfd,
  0xf6, 0xdf, 0x0b, 0xf3, 0x0a, 0x01, 0x15, 0x04, 0xf3, 0x23, 0xfc, 0x03,
  0x28, 0xf1, 0x14, 0x12, 0xe6, 0x04, 0xfc, 0x2e, 0xf0, 0x0b, 0x04, 0xfb,
  0x16, 0x1f, 0x29, 0xf7, 0x10, 0xff, 0x10, 0x23, 0xf0, 0xfc, 0x10, 0x0d,
  0xff, 0x14, 0x14, 0x13, 0xe6, 0x16, 0x10, 0x1f, 0xdf, 0x09, 0xc7, 0x02,
  0x14, 0xde, 0x08, 0xfd, 0xc8, 0x1b, 0x07, 0x00, 0xf2, 0xf5, 0x20, 0xed,
  0x06, 0x16, 0xd5, 0x06, 0x05, 0xf5, 0xf0, 0x04, 0xe1, 0x06, 0xe1, 0x25,
  0xd0, 0x01, 0xee, 0x01, 0xed, 0xf9, 0xd1, 0xfd, 0xfe, 0xcb, 0x05, 0xf7,
  0xf7, 0x03, 0x16, 0xdc, 0xf4, 0x02, 0xc7, 0xdc, 0xe9, 0xdc, 0xd8, 0x05,
  0xbc, 0xe3, 0x0e, 0xfb, 0xe8, 0x12, 0xef, 0xab, 0xe4, 0x0e, 0x0f, 0xfd,
  0x01, 0x19, 0x01, 0xd3, 0xf6, 0x8b, 0xf4, 0x1c, 0xcf, 0xd0, 0x0c, 0xe5,
  0x03, 0x09, 0x14, 0x25, 0x00, 0xfb, 0xf4, 0x0d, 0xf6, 0x04, 0xfd, 0x02,
  0xf3, 0x12, 0xf4, 0xed, 0xe0, 0x19, 0xf3, 0xcf, 0x15, 0xf9, 0xe5, 0xfc,
  0x03, 0x18, 0xfc, 0xfd, 0xde, 0xfb, 0x07, 0xfe, 0xfd, 0x00, 0x17, 0xe9,
  0xfe, 0x01, 0x0b, 0x0c, 0x00, 0x02, 0x1d, 0x13, 0x0a, 0x26, 0x02, 0x15,
  0xf2, 0xe8, 0xfe, 0x09, 0xdc, 0xe8, 0xe8, 0xf3, 0x04, 0x2a, 0xf9, 0x0a,
  0x02, 0x03, 0x03, 0x1a, 0x16, 0xf9, 0xd4, 0xec, 0x10, 0x06, 0xec, 0xe9,
  0xda, 0xec, 0xdc, 0xf3, 0xf2, 0x05, 0x01, 0xf5, 0xdd, 0xf5, 0x02, 0x14,
  0x10, 0xe6, 0xe4, 0xfc, 0x06, 0x41, 0xd2, 0x1d, 0x00, 0x04, 0x0e, 0x1a,
  0xe4, 0xe3, 0xe8, 0xe7, 0x10, 0xc7, 0xce, 0x02, 0xdc, 0xe1, 0xdb, 0x13,
  0xc2, 0x0e, 0xf0, 0xd6, 0xec, 0x18, 0xf0, 0x01, 0x07, 0xdc, 0x01, 0xd7,
  0xf7, 0xe0, 0xfc, 0x2f, 0xe0, 0xdc, 0x20, 0xe1, 0xcf, 0x00, 0x04, 0xf4,
  0xfb, 0xe2, 0xf4, 0xff, 0xf3, 0xe7, 0x03, 0x17, 0xf1, 0x16, 0x12, 0x02,
  0xe7, 0x0b, 0xe7, 0xdd, 0x09, 0xf0, 0xf8, 0xf9, 0x01, 0xfd, 0xfa, 0x04,
  0xed, 0xe8, 0x32, 0x05, 0xe1, 0xfd, 0xe7, 0xf0, 0xf9, 0x0c, 0xe1, 0xfb,
  0xf2, 0xdf, 0x00, 0x02, 0xd4, 0x08, 0xf3, 0xe9, 0xf2, 0xf2, 0xe9, 0x06,
  0xf5, 0x09, 0xee, 0x0a, 0x0b, 0xf1, 0xe8, 0x01, 0xf6, 0x06, 0x01, 0xcf,
  0xf9, 0xdc, 0x23, 0xf7, 0xde, 0xfa, 0xf3, 0xe9, 0x0d, 0xf5, 0xfc, 0x12,
  0x00, 0x0e, 0xd2, 0x19, 0xed, 0x13, 0x30, 0x2d, 0x38, 0x19, 0x12, 0xfd,
  0xfe, 0xfb, 0xa3, 0xff, 0xf0, 0xf2, 0x3d, 0xe3, 0x19, 0xbf, 0x25, 0x23,
  0x0b, 0x0b, 0x01, 0x0c, 0x24, 0x18, 0xfa, 0x1b, 0xf3, 0xfa, 0xd6, 0x21,
  0x1a, 0xf3, 0x32, 0xde, 0x12, 0x0a, 0x08, 0x11, 0x05, 0x11, 0x0a, 0xf9,
  0xdb, 0xfe, 0x08, 0xfe, 0xf2, 0x3d, 0xfb, 0x04, 0x25, 0xf2, 0x12, 0xdd,
  0xf3, 0xf9, 0xe8, 0x08, 0xec, 0x07, 0xe3, 0x01, 0xdb, 0xe4, 0xf9, 0x23,
  0xf1, 0xea, 0xef, 0xf3, 0xdb, 0xf0, 0xe4, 0xe5, 0x00, 0xe1, 0xe8, 0xed,
  0x1b, 0xd6, 0xf6, 0xf3, 0xf6, 0xfc, 0x01, 0xe6, 0xf5, 0xfc, 0x15, 0xed,
  0xf5, 0xfe, 0xd6, 0xf6, 0xf7, 0x16, 0x01, 0xec, 0xe9, 0x12, 0x0a, 0xfe,
  0xf5, 0x18, 0xe1, 0x0a, 0x05, 0xf1, 0x0d, 0xf8, 0x11, 0x03, 0xc0, 0x05,
  0x2a, 0xe5, 0x15, 0x0f, 0x08, 0x0d, 0x0d, 0x0f, 0xf4, 0x0a, 0x0e, 0x07,
  0xfb, 0x12, 0xff, 0xec, 0x00, 0xdc, 0xf4, 0xdd, 0xed, 0xf8, 0x0a, 0x0f,
  0xe0, 0xe8, 0x19, 0x0d, 0xe4, 0x0f, 0x06, 0x2c, 0x34, 0x21, 0x06, 0x03,
  0xc2, 0xfe, 0xfa, 0xe5, 0xe0, 0x0d, 0x24, 0xfa, 0x08, 0x0e, 0xeb, 0x0c,
  0xfe, 0xe7, 0xf0, 0xe2, 0xe8, 0xf2, 0x1d, 0x0d, 0xec, 0xe5, 0xfc, 0x0b,
  0x03, 0x0d, 0xf8, 0xba, 0xf9, 0xd1, 0xfe, 0x24, 0xc0, 0x08, 0x0e, 0xef,
  0xf4, 0x13, 0x1a, 0x00, 0xf9, 0xf5, 0xe8, 0x28, 0xfd, 0xdd, 0xe5, 0xe0,
  0xde, 0x15, 0x0c, 0x07, 0xe0, 0xfc, 0x09, 0xf4, 0x1f, 0xf1, 0xed, 0xda,
  0x02, 0xfe, 0x09, 0x0b, 0xe3, 0x12, 0x1b, 0x0f, 0x18, 0x18, 0x0d, 0x16,
  0xf3, 0xf4, 0xfc, 0xfe, 0xd5, 0xe2, 0xe1, 0xea, 0xe8, 0xd5, 0xf9, 0xf9,
  0x09, 0x0a, 0xf6, 0x00, 0xef, 0x16, 0xd3, 0xf4, 0x1e, 0x0b, 0x19, 0xf8,
  0xfc, 0x03, 0xf5, 0xf7, 0x06, 0x0a, 0x06, 0x01, 0x09, 0x05, 0x09, 0xd6,
  0xe4, 0x0a, 0xf3, 0xe3, 0x04, 0x09, 0x27, 0xf5, 0x07, 0x1a, 0x0b, 0x01,
  0xa3, 0x07, 0x07, 0xf7, 0xdf, 0xa6, 0xc2, 0xf1, 0xfb, 0xee, 0xe9, 0xd8,
  0xd5, 0xd7, 0x05, 0xef, 0x0c, 0x0a, 0xf2, 0xda, 0xd7, 0x2b, 0xe6, 0xfe,
  0x1c, 0xfb, 0x05, 0xe1, 0x29, 0x00, 0xcb, 0xff, 0xb5, 0x0d, 0xd7, 0xe4,
  0xdd, 0x10, 0xd0, 0x38, 0x29, 0xef, 0xef, 0xf0, 0xb6, 0xd7, 0xe3, 0xd8,
  0xed, 0xf4, 0xe7, 0xf1, 0xe2, 0xe1, 0xf7, 0x07, 0xff, 0xd2, 0xf8, 0xe6,
  0xd7, 0xfe, 0x19, 0x1d, 0x18, 0xe1, 0xe1, 0xe0, 0xfd, 0xea, 0xda, 0x1d,
  0xe4, 0xff, 0x15, 0xfa, 0xf9, 0x0b, 0xe9, 0xe0, 0xef, 0xcc, 0xd2, 0xed,
  0xc4, 0xef, 0xf8, 0xea, 0xe1, 0xf5, 0xd6, 0x00, 0xeb, 0xf4, 0x21, 0x15,
  0x0b, 0xd1, 0xd9, 0xfb, 0x01, 0xe7, 0xd9, 0xf5, 0xee, 0xf7, 0xdb, 0xe8,
  0xf6, 0xf3, 0xf4, 0xe5, 0xf6, 0x17, 0xda, 0xf3, 0xfa, 0xf9, 0xf5, 0x02,
  0x12, 0x28, 0xfb, 0x15, 0xf1, 0x0a, 0xfe, 0xf7, 0x0e, 0xfb, 0xe1, 0xdb,
  0xfa, 0xea, 0xb4, 0x2d, 0x0c, 0x12, 0xfb, 0xf5, 0xd6, 0x02, 0xe9, 0xcc,
  0xf6, 0xff, 0xe0, 0xeb, 0xf7, 0xf7, 0xeb, 0xf0, 0xf9, 0xeb, 0xdc, 0xf6,
  0xea, 0xf9, 0xf0, 0xea, 0x1b, 0xe0, 0xed, 0xd3, 0x00, 0xda, 0x00, 0x09,
  0xd9, 0x06, 0x15, 0xf8, 0xfe, 0xd9, 0xfc, 0xd9, 0xea, 0xfc, 0xf1, 0xf7,
  0xd7, 0xe0, 0x00, 0xe5, 0xe4, 0xdb, 0xf2, 0x0b, 0xe9, 0xd9, 0x05, 0xf1,
  0x05, 0xe5, 0xd6, 0xef, 0xfb, 0xee, 0xf6, 0xe8, 0xe9, 0xf2, 0xfa, 0x01,
  0x08, 0x0c, 0xda, 0xdd, 0x04, 0xed, 0x1b, 0xae, 0x34, 0x0d, 0xf9, 0xf4,
  0xef, 0xe5, 0x0f, 0x0c, 0x23, 0xf1, 0xff, 0x27, 0xcf, 0x0d, 0x2a, 0xfe,
  0xd1, 0xfe, 0x09, 0xe4, 0xe4, 0xf5, 0x15, 0xeb, 0x0e, 0xf8, 0x16, 0xfb,
  0x12, 0x06, 0x03, 0xbe, 0xc0, 0x12, 0xde, 0x08, 0x34, 0xef, 0xc2, 0xef,
  0x17, 0x08, 0xaa, 0x03, 0x04, 0xd9, 0x18, 0x08, 0x05, 0xfe, 0xed, 0x10,
  0x18, 0x00, 0xef, 0xf7, 0x14, 0x26, 0xf9, 0xfb, 0x04, 0x2b, 0x34, 0x12,
  0x03, 0x16, 0x0f, 0xa8, 0xbf, 0x01, 0x64, 0x02, 0xfb, 0xf4, 0xe4, 0xff,
  0xf6, 0x19, 0xe7, 0x17, 0xdb, 0x15, 0xd8, 0x21, 0xd1, 0xeb, 0x13, 0xe1,
  0xe4, 0xf9, 0x03, 0x06, 0x1a, 0xf7, 0x09, 0x18, 0x01, 0xf3, 0x04, 0x03,
  0xf0, 0x09, 0x09, 0x1b, 0xec, 0x00, 0xe0, 0xfb, 0xd2, 0x01, 0xf1, 0x16,
  0xbf, 0x10, 0x07, 0xf7, 0x06, 0x21, 0x1e, 0xf3, 0xf7, 0xe5, 0x14, 0xfd,
  0xe9, 0x08, 0x1e, 0x0d, 0x44, 0x0a, 0x08, 0x10, 0xd5, 0x04, 0x1b, 0xf1,
  0x0f, 0x0a, 0xfb, 0xed, 0xf7, 0x2c, 0x1c, 0x07, 0xb4, 0xf8, 0xef, 0xee,
  0x11, 0x08, 0xf0, 0xdc, 0xf2, 0xf2, 0xee, 0x34, 0x00, 0x03, 0x0f, 0x18,
  0x09, 0xd0, 0x0b, 0xf5, 0x04, 0x0d, 0x00, 0x0b, 0xc4, 0x15, 0x05, 0x03,
  0xfd, 0xe5, 0x17, 0xeb, 0xed, 0x0a, 0x13, 0x0f, 0xee, 0x04, 0xea, 0x1d,
  0x1d, 0xfb, 0x18, 0x0e, 0xfb, 0x0a, 0xee, 0x31, 0xed, 0x0f, 0xe4, 0x07,
  0x12, 0x04, 0xf3, 0xe3, 0x08, 0x0e, 0x22, 0x1b, 0xdb, 0x0b, 0xfc, 0xe2,
  0xcf, 0x11, 0xcf, 0x0f, 0x19, 0xf0, 0x08, 0xe1, 0xd1, 0x01, 0xdf, 0xe3,
  0x03, 0x0f, 0x09, 0xee, 0xd9, 0x11, 0x00, 0x02, 0x04, 0xde, 0x03, 0xe4,
  0xfa, 0x05, 0x09, 0x0b, 0xc3, 0xfe, 0xf9, 0xe9, 0x8b, 0x08, 0xfc, 0x2c,
  0x01, 0x16, 0xe4, 0xdd, 0xfa, 0xbb, 0xe7, 0xfb, 0x1c, 0x0f, 0xeb, 0xfb,
  0x05, 0xfd, 0xf1, 0xec, 0xdd, 0x02, 0x0f, 0x08, 0x0a, 0x02, 0x0d, 0xf1,
  0xeb, 0xff, 0xdf, 0xfb, 0xdc, 0xed, 0xe5, 0xfe, 0x11, 0x03, 0xf6, 0xed,
  0x12, 0x06, 0x32, 0xfe, 0xec, 0xed, 0xfc, 0xfd, 0xf1, 0xdc, 0xec, 0x17,
  0xec, 0xf3, 0xff, 0x09, 0x9b, 0xf6, 0xf8, 0x0b, 0xc8, 0x01, 0xb2, 0xe8,
  0xce, 0xbd, 0xe8, 0x09, 0xa6, 0xea, 0xe5, 0xfa, 0x99, 0xfc, 0x0b, 0xf8,
  0xd5, 0x0e, 0xf0, 0xbe, 0x09, 0x22, 0x22, 0x0b, 0xf4, 0x1d, 0xef, 0x24,
  0xa8, 0xfc, 0x25, 0xfc, 0xd9, 0x16, 0x0d, 0x97, 0x00, 0xe8, 0xb6, 0xd7,
  0xe1, 0xff, 0x0e, 0xec, 0x08, 0x13, 0x03, 0xe5, 0x03, 0x00, 0x00, 0x2b,
  0x0f, 0xfd, 0xfb, 0xfd, 0x0d, 0xfc, 0xf2, 0x11, 0x08, 0x18, 0x0c, 0x03,
  0xf7, 0xfe, 0xf2, 0xfa, 0xe2, 0xfe, 0x2e, 0xee, 0xf5, 0x29, 0x14, 0x1b,
  0xed, 0xe4, 0xf7, 0x0e, 0x03, 0xef, 0xfc, 0x23, 0x07, 0x07, 0xf2, 0xee,
  0xf7, 0xe4, 0xff, 0x11, 0x08, 0x1f, 0xff, 0x02, 0x24, 0xeb, 0x05, 0x0b,
  0xf4, 0x16, 0xed, 0xee, 0x07, 0xf5, 0xf0, 0x1b, 0x07, 0xde, 0xf1, 0x0f,
  0x00, 0x04, 0x14, 0x12, 0xf4, 0x16, 0x1e, 0xfc, 0x10, 0xe4, 0xfe, 0x1c,
  0xf6, 0x1b, 0x04, 0xe1, 0x27, 0x10, 0x12, 0x04, 0xd9, 0xff, 0xf4, 0xf8,
  0xfd, 0xe8, 0xd8, 0x26, 0xfa, 0xe7, 0xfa, 0xf0, 0xf2, 0x0f, 0xff, 0xf0,
  0xf2, 0x08, 0x16, 0xe2, 0x08, 0x0d, 0x04, 0x00, 0x1d, 0x01, 0xe1, 0xb1,
  0x0c, 0xf9, 0xe2, 0xf0, 0xf6, 0xec, 0xfe, 0x05, 0x12, 0xff, 0xf2, 0x13,
  0xf4, 0xd1, 0x11, 0xfd, 0xfc, 0xf5, 0x11, 0xfc, 0x0a, 0x15, 0x12, 0x1d,
  0xf7, 0xe8, 0xf8, 0x0d, 0x15, 0x12, 0xdf, 0x1e, 0x29, 0x02, 0xf6, 0x1b,
  0x1d, 0xef, 0x0a, 0xf6, 0xfc, 0x22, 0x20, 0x12, 0x04, 0xe3, 0xf9, 0x22,
  0xf1, 0xf2, 0x11, 0xc4, 0xd1, 0x08, 0xf3, 0xe7, 0xf3, 0xec, 0x02, 0xef,
  0x0f, 0x0f, 0xf9, 0x0b, 0xfa, 0xd1, 0xf6, 0xed, 0x01, 0xef, 0x0e, 0xf3,
  0xda, 0xfb, 0x11, 0xfa, 0x09, 0x06, 0x02, 0xe9, 0x03, 0xf0, 0x03, 0xc8,
  0xdd, 0xdf, 0xdf, 0x15, 0x00, 0xb7, 0x0f, 0xf4, 0x08, 0x1c, 0xce, 0x19,
  0x10, 0xea, 0x06, 0xf9, 0x22, 0x0a, 0xf5, 0x25, 0x0b, 0x04, 0x1b, 0xf7,
  0x1b, 0x03, 0xfc, 0x0f, 0xba, 0x0e, 0xf3, 0xd3, 0x16, 0xc4, 0xe4, 0xf1,
  0xea, 0x09, 0x29, 0x23, 0xd5, 0xf2, 0xe7, 0xfc, 0xe1, 0x0b, 0xfb, 0xd2,
  0xd3, 0xde, 0xd9, 0xfd, 0xf1, 0xdd, 0xf3, 0xcf, 0x10, 0x0b, 0x18, 0xf8,
  0xf5, 0x12, 0xf0, 0xec, 0xf0, 0x0c, 0x04, 0xf4, 0x02, 0xf6, 0xfd, 0xfa,
  0xe0, 0xf7, 0xe3, 0xe0, 0xaf, 0xf1, 0xf7, 0xe5, 0xd6, 0xe8, 0xc7, 0x02,
  0xde, 0xfe, 0x00, 0xeb, 0xeb, 0xfa, 0x0c, 0xe9, 0x06, 0x07, 0x06, 0x0a,
  0x00, 0x09, 0x18, 0x0b, 0xce, 0xdc, 0xe8, 0x0d, 0x01, 0xd7, 0x0e, 0xf3,
  0xfa, 0xf5, 0x04, 0x05, 0xca, 0x0a, 0xf7, 0xff, 0xff, 0xf5, 0xf1, 0x14,
  0xf9, 0x18, 0xfe, 0x17, 0xe4, 0x0e, 0xd0, 0x06, 0xfd, 0x1f, 0x0b, 0x13,
  0x17, 0x14, 0x8b, 0xf4, 0xf0, 0x0f, 0xfb, 0xf8, 0xf8, 0x0a, 0x10, 0x0a,
  0xd8, 0xdc, 0x03, 0xfb, 0xf5, 0xea, 0xfd, 0xea, 0xe7, 0xf6, 0xf0, 0x01,
  0x17, 0xf8, 0xce, 0x3b, 0xdf, 0x0a, 0x00, 0xf3, 0xe4, 0xe6, 0x05, 0xe6,
  0x1d, 0xfd, 0xff, 0xeb, 0xf2, 0xb6, 0xfd, 0x13, 0x06, 0x22, 0xf5, 0x04,
  0x13, 0xf5, 0xf2, 0xf2, 0xeb, 0xf9, 0xe1, 0xfe, 0xec, 0xfc, 0x08, 0x08,
  0xdd, 0xf9, 0x0c, 0xf2, 0x0e, 0xfa, 0xfe, 0xef, 0x10, 0x11, 0x11, 0x07,
  0x11, 0xf5, 0xf9, 0xf1, 0xf9, 0x04, 0x07, 0xfe, 0x12, 0xf6, 0xef, 0x03,
  0xf4, 0xfd, 0xf3, 0xf2, 0xcf, 0xf3, 0x1c, 0x08, 0xf9, 0xfd, 0xfb, 0x0d,
  0xea, 0xdb, 0x07, 0xf7, 0xf6, 0xda, 0xf4, 0x01, 0x07, 0xf3, 0x00, 0xd9,
  0xf1, 0x0c, 0x0f, 0xe7, 0xeb, 0x07, 0x11, 0xf3, 0x1e, 0xf9, 0xce, 0x0f,
  0xf7, 0xff, 0xfb, 0x1b, 0xf7, 0xff, 0xff, 0xfa, 0x0d, 0x3e, 0xee, 0xea,
  0xdf, 0x11, 0xf3, 0xf0, 0x23, 0x0f, 0x02, 0x13, 0x23, 0x09, 0xff, 0x06,
  0x02, 0x0f, 0xff, 0x0e, 0x13, 0x16, 0xf4, 0x00, 0xfa, 0x09, 0x0f, 0x18,
  0x0c, 0xc6, 0x05, 0x04, 0xf5, 0x29, 0xf4, 0x15, 0xfd, 0xe6, 0x10, 0x21,
  0x07, 0xf2, 0x01, 0xe2, 0x00, 0x07, 0x16, 0xf0, 0x13, 0x1a, 0x12, 0x17,
  0x00, 0x1d, 0xf1, 0x17, 0x00, 0x04, 0x01, 0x01, 0x12, 0xe9, 0xf7, 0x0e,
  0xec, 0x06, 0x0f, 0x08, 0xf1, 0xef, 0x24, 0x0e, 0xf9, 0xf2, 0xf0, 0xfe,
  0x23, 0xf9, 0x02, 0xef, 0x05, 0xe5, 0xf8, 0x04, 0xe6, 0x15, 0xf1, 0xf8,
  0xf1, 0x0e, 0x09, 0xf5, 0xee, 0x10, 0xf9, 0x1f, 0x0a, 0xd6, 0xee, 0xd9,
  0xec, 0xe0, 0xf9, 0xea, 0xf8, 0x01, 0xee, 0xff, 0x00, 0xfa, 0xf6, 0x03,
  0x04, 0xfe, 0xf7, 0xe2, 0xf3, 0x11, 0x04, 0xe9, 0x1d, 0x01, 0xf5, 0xe4,
  0x0e, 0xd9, 0xe8, 0xd9, 0xf2, 0x82, 0x0b, 0xe0, 0x05, 0xe0, 0x0f, 0x0b,
  0xff, 0xf0, 0x05, 0xf3, 0x0d, 0xdf, 0x10, 0xf4, 0x03, 0xfc, 0xf0, 0x07,
  0x09, 0xeb, 0xe6, 0x05, 0xff, 0xe0, 0x02, 0xf3, 0xf4, 0xe2, 0xef, 0x06,
  0xef, 0xde, 0xe4, 0xeb, 0x03, 0x02, 0xfa, 0xee, 0xf9, 0xf3, 0x02, 0x16,
  0x0a, 0xf6, 0xeb, 0xef, 0xf5, 0xee, 0x0b, 0xf3, 0x0d, 0xf3, 0xed, 0xfe,
  0x08, 0xfc, 0x0c, 0xf2, 0x08, 0x00, 0xf2, 0x01, 0x0f, 0xed, 0xf1, 0xfc,
  0x04, 0x05, 0xf5, 0xef, 0xfe, 0xf7, 0x08, 0xfd, 0xf4, 0xef, 0xf6, 0x05,
  0xfb, 0x06, 0xf4, 0xf4, 0xeb, 0x05, 0x0a, 0xf8, 0x22, 0x04, 0xfb, 0xe4,
  0x84, 0xf9, 0xf1, 0xee, 0x2c, 0x2c, 0x04, 0xe8, 0xf6, 0x2b, 0x0f, 0x1f,
  0xde, 0x15, 0xc6, 0x15, 0xfa, 0xfa, 0xf3, 0x18, 0xfe, 0xf1, 0xfc, 0xf1,
  0x11, 0xcd, 0xff, 0xfc, 0x15, 0xdb, 0x00, 0xf1, 0xd4, 0x0b, 0xf9, 0x00,
  0x4a, 0x1b, 0x38, 0x04, 0xef, 0xed, 0xe2, 0xe7, 0x03, 0xca, 0x08, 0xfa,
  0xdc, 0xf8, 0x08, 0xe1, 0xdd, 0xd6, 0xf6, 0xe5, 0x04, 0xeb, 0xfa, 0xdc,
  0x28, 0x07, 0xe4, 0xf1, 0x07, 0xf6, 0x24, 0x11, 0x21, 0xe7, 0x3a, 0xe3,
  0x0d, 0x04, 0x11, 0x09, 0x1c, 0xde, 0x04, 0x0f, 0x13, 0x1a, 0x0b, 0xe6,
  0x29, 0x10, 0xf5, 0x18, 0x06, 0xeb, 0xfa, 0xfe, 0x11, 0x03, 0x28, 0x35,
  0x10, 0x10, 0x06, 0x0c, 0x09, 0xf0, 0x13, 0x09, 0x14, 0x19, 0x0d, 0x06,
  0xf8, 0x11, 0xf3, 0x1f, 0xf3, 0x00, 0xea, 0xf7, 0x1e, 0xfa, 0x20, 0xf2,
  0x0c, 0xdd, 0x12, 0x03, 0xfa, 0x00, 0x07, 0x1d, 0x87, 0xe7, 0xda, 0xf4,
  0x30, 0x57, 0x00, 0x0f, 0xf0, 0x2f, 0x0b, 0xc4, 0xf3, 0x15, 0xb5, 0xfd,
  0x25, 0x08, 0xfd, 0xe2, 0xe4, 0xfd, 0xd4, 0xe7, 0xfd, 0xc4, 0xeb, 0xbb,
  0xf6, 0x07, 0xfe, 0xf2, 0xd5, 0x05, 0xfd, 0x06, 0x31, 0x2a, 0xe5, 0xec,
  0x0f, 0xc1, 0x02, 0xe2, 0xea, 0xff, 0x9d, 0xdf, 0xdb, 0xe2, 0x02, 0x0d,
  0x06, 0xe9, 0x0c, 0xf2, 0xf4, 0x17, 0xbd, 0xf3, 0x47, 0xfa, 0x01, 0x23,
  0xfa, 0xfc, 0x1c, 0x03, 0x33, 0xe6, 0x12, 0xfc, 0xbf, 0x0a, 0x1d, 0x0f,
  0xfa, 0x18, 0x0a, 0x2b, 0x1b, 0x11, 0x04, 0xfd, 0xfd, 0x22, 0x08, 0x00,
  0x06, 0xf5, 0x06, 0x06, 0x27, 0xfa, 0x21, 0xf5, 0xf8, 0xfb, 0x0e, 0x11,
  0x0b, 0x0a, 0x1e, 0xfd, 0x0f, 0x1d, 0xdb, 0x1a, 0x04, 0x1c, 0x13, 0x1a,
  0xe7, 0x10, 0x25, 0xfa, 0x2b, 0x20, 0xee, 0x04, 0x1b, 0x04, 0x21, 0x03,
  0x2a, 0x02, 0xe8, 0xd9, 0x0d, 0xe0, 0x1e, 0xd1, 0x0c, 0x18, 0xc8, 0x01,
  0xee, 0xfb, 0xee, 0xca, 0xc5, 0xd3, 0x0c, 0x2d, 0x0e, 0xe2, 0xb7, 0xf9,
  0x08, 0xcc, 0xf6, 0xf1, 0xc4, 0xc9, 0x2d, 0xfe, 0x1c, 0xe0, 0x03, 0xfa,
  0x36, 0xfe, 0x0f, 0xcf, 0xf3, 0xc0, 0xf1, 0xfb, 0xfa, 0xaf, 0x08, 0x07,
  0xd8, 0xef, 0x16, 0x30, 0x0f, 0x35, 0xe6, 0xe7, 0x29, 0xdd, 0xf1, 0xd3,
  0x2f, 0xdb, 0x11, 0x15, 0x34, 0xeb, 0x15, 0xa7, 0xed, 0xe6, 0xf0, 0xf5,
  0xec, 0x24, 0xf2, 0xcf, 0x4d, 0x01, 0xf2, 0xff, 0xfa, 0xfd, 0xf1, 0xe9,
  0xfe, 0xff, 0xf9, 0xfe, 0x07, 0xd1, 0xfe, 0xe6, 0x03, 0xea, 0xef, 0xf8,
  0x11, 0x1d, 0x23, 0x12, 0x04, 0x26, 0x25, 0x1e, 0x09, 0xf4, 0x10, 0xde,
  0x0d, 0x13, 0x0e, 0xf9, 0xf3, 0x03, 0x00, 0x25, 0xf1, 0x10, 0xd5, 0x0f,
  0x14, 0x09, 0xd5, 0xf5, 0xf7, 0xee, 0xf7, 0x08, 0x22, 0x01, 0x12, 0x04,
  0x0f, 0x27, 0x11, 0xe8, 0x14, 0x05, 0x25, 0x1a, 0x13, 0x1b, 0x00, 0xef,
  0x05, 0x07, 0x1b, 0x21, 0xef, 0xf3, 0x00, 0x00, 0x29, 0xea, 0xf0, 0x25,
  0x1d, 0xf6, 0x0e, 0x23, 0x04, 0x06, 0x10, 0x0e, 0xe1, 0x2a, 0x16, 0xff,
  0x25, 0x27, 0xe9, 0x03, 0xe8, 0x03, 0xef, 0xcb, 0xf3, 0x05, 0x18, 0x0d,
  0xcd, 0x09, 0x0a, 0x10, 0x09, 0x15, 0x01, 0x18, 0xe6, 0xde, 0x0e, 0x04,
  0x11, 0x01, 0x28, 0xff, 0x0c, 0x1f, 0x13, 0xed, 0x17, 0xd0, 0x08, 0xfd,
  0x17, 0x10, 0xf1, 0xe7, 0x1d, 0x0e, 0x1b, 0x03, 0xfa, 0x0c, 0x2f, 0x13,
  0x15, 0x06, 0xdb, 0xf9, 0xf0, 0xe9, 0xe1, 0x0c, 0x2d, 0xf9, 0x10, 0x16,
  0x18, 0x16, 0x1c, 0x20, 0x1a, 0xfd, 0x1c, 0x00, 0x0c, 0x22, 0xdc, 0xfd,
  0x01, 0x0f, 0x11, 0x16, 0xed, 0x20, 0x18, 0x02, 0x25, 0x13, 0xf8, 0x16,
  0x03, 0xd6, 0x1c, 0x1e, 0xdd, 0xd9, 0xe4, 0xfd, 0xc6, 0xc8, 0xdc, 0xd9,
  0xcd, 0xed, 0x01, 0xd2, 0xf5, 0xca, 0xf4, 0xd3, 0xad, 0xe0, 0xc5, 0xe9,
  0xf0, 0xe7, 0xdb, 0xe9, 0x06, 0xd3, 0xdd, 0xe5, 0xce, 0xf2, 0xef, 0xdc,
  0xf8, 0x0c, 0xb6, 0xf7, 0xf8, 0xd9, 0xea, 0xf2, 0x92, 0x2c, 0xcf, 0x0c,
  0xf1, 0xd6, 0x16, 0xe2, 0xcd, 0x1c, 0xbd, 0x11, 0xea, 0xcf, 0xc9, 0xeb,
  0xfb, 0xf8, 0xda, 0xd9, 0xc8, 0xf5, 0x24, 0xb4, 0xd4, 0x0c, 0xde, 0xfc,
  0x37, 0x0a, 0xff, 0xf8, 0xd3, 0x11, 0xd4, 0x16, 0xf8, 0xf0, 0xcd, 0xe7,
  0xee, 0xfd, 0x13, 0x15, 0xee, 0xf3, 0xeb, 0x0c, 0xf5, 0xff, 0x13, 0xe2,
  0xdb, 0xf2, 0x0a, 0xfe, 0xf5, 0xe3, 0xee, 0x1d, 0xdc, 0xff, 0xe6, 0xf0,
  0xfa, 0xbd, 0xdf, 0xf6, 0xd8, 0xfc, 0xee, 0x04, 0xfb, 0xf8, 0xdc, 0xe6,
  0xde, 0xdd, 0xe0, 0xf2, 0xd8, 0x01, 0xf1, 0xf1, 0xe5, 0xbe, 0xe6, 0xd6,
  0x0b, 0xe6, 0xeb, 0xe0, 0xe7, 0x25, 0xf1, 0x01, 0xe1, 0x0f, 0xf3, 0xee,
  0xff, 0xfa, 0xf8, 0x0a, 0x06, 0xd2, 0xd8, 0xef, 0xd7, 0x11, 0x1c, 0xf3,
  0x01, 0xe5, 0xf0, 0x05, 0xf6, 0x0d, 0xc8, 0xec, 0x29, 0x04, 0xc7, 0xd9,
  0xd0, 0xf1, 0x02, 0xf0, 0xd3, 0x01, 0xe5, 0x14, 0x16, 0x1e, 0xe0, 0xfb,
  0x05, 0xb9, 0xee, 0x27, 0xfb, 0x1a, 0xf2, 0x0a, 0x26, 0xf8, 0xde, 0xfc,
  0xf2, 0xf4, 0x10, 0xd9, 0xab, 0xfb, 0x03, 0xbd, 0x1c, 0x01, 0xdd, 0xdc,
  0x10, 0x1c, 0xdf, 0xf4, 0xfd, 0x0a, 0x04, 0xd9, 0xf6, 0x15, 0xf7, 0x07,
  0xdb, 0xfb, 0xfc, 0xf2, 0xe9, 0xef, 0xf7, 0x09, 0xf0, 0x16, 0xf8, 0xf0,
  0xff, 0xee, 0xf0, 0x13, 0xd3, 0xde, 0xf7, 0xe0, 0xf2, 0xe8, 0xe6, 0xef,
  0xe6, 0xf8, 0xfc, 0xcf, 0xe9, 0xe0, 0xd9, 0xd8, 0xe6, 0xf1, 0xe9, 0xcf,
  0xe4, 0xe0, 0xdd, 0xdd, 0xf0, 0xe9, 0xe8, 0xe7, 0x1a, 0x07, 0xf7, 0xff,
  0xfa, 0x00, 0x04, 0x1a, 0xe1, 0x0e, 0xe7, 0x12, 0x00, 0xf3, 0x13, 0xe8,
  0x08, 0x08, 0xf3, 0x13, 0xfa, 0xe7, 0x1b, 0x0f, 0x02, 0xfd, 0x0d, 0x16,
  0x18, 0x19, 0x05, 0xfc, 0xee, 0x0a, 0xfa, 0x06, 0x05, 0x05, 0x13, 0x0f,
  0xd3, 0xdd, 0x09, 0x0b, 0xfb, 0x26, 0x0e, 0x19, 0x14, 0xe5, 0x1d, 0x0e,
  0x10, 0xf7, 0xf6, 0x13, 0xfb, 0x1e, 0x1f, 0x1b, 0xf5, 0x1d, 0x13, 0x18,
  0xbf, 0x01, 0xf8, 0xf4, 0xf5, 0xf9, 0x02, 0xfa, 0xf3, 0x0d, 0xf3, 0xfb,
  0xe7, 0x07, 0xd7, 0x04, 0x1b, 0xe4, 0x05, 0xd1, 0x03, 0x0e, 0x0f, 0x27,
  0xf3, 0xfa, 0x20, 0x08, 0x18, 0x09, 0x12, 0xf5, 0xe0, 0xf7, 0xea, 0x0e,
  0xf5, 0xfd, 0xdb, 0xd6, 0xee, 0x0b, 0xf8, 0xf2, 0xf5, 0xe0, 0x0f, 0xdd,
  0xff, 0xee, 0xf0, 0xdf, 0xe6, 0xde, 0xfa, 0xe8, 0xda, 0xe2, 0x05, 0xfc,
  0xe6, 0xe2, 0xd7, 0xea, 0xe8, 0x14, 0x00, 0x18, 0x03, 0xf3, 0xea, 0xf9,
  0xf1, 0xef, 0x0f, 0xfa, 0x19, 0xf1, 0xfb, 0xf4, 0xf9, 0x14, 0xfc, 0x0e,
  0x07, 0xf8, 0x1a, 0x0c, 0xf3, 0x0a, 0x04, 0x0b, 0x1d, 0x09, 0x08, 0xf7,
  0xe8, 0x0d, 0x0e, 0x10, 0xf0, 0xf2, 0xd6, 0x09, 0x0b, 0x06, 0x16, 0x0d,
  0xb7, 0xc3, 0x0b, 0xfd, 0xf8, 0x19, 0x09, 0x15, 0x14, 0x0e, 0xea, 0x03,
  0xd9, 0x0b, 0xf6, 0xfd, 0xf8, 0x17, 0x1a, 0xfe, 0xf7, 0x01, 0x06, 0xe6,
  0x18, 0xf5, 0xe0, 0x1e, 0xe7, 0xfb, 0x0e, 0x06, 0xe5, 0x08, 0xf9, 0x14,
  0x06, 0x15, 0xfe, 0xf8, 0x22, 0x1b, 0x06, 0xf2, 0xdc, 0xfb, 0x1c, 0x0a,
  0xfd, 0x1b, 0x12, 0x16, 0xd9, 0xfd, 0xe0, 0x00, 0xd0, 0xf8, 0xf8, 0xe3,
  0xf3, 0xfe, 0xdb, 0xfa, 0xf2, 0xe9, 0xfb, 0xf8, 0xe7, 0xe8, 0xdf, 0xeb,
  0xf7, 0xdc, 0xf2, 0xf2, 0xf5, 0xfc, 0xf3, 0xd9, 0xe8, 0xd9, 0xee, 0xe9,
  0xf8, 0x1b, 0x19, 0xfa, 0x2a, 0x13, 0x1d, 0x1b, 0x0f, 0x04, 0x16, 0x02,
  0x08, 0x00, 0xe2, 0x05, 0xf6, 0xe3, 0x03, 0xee, 0x08, 0xe6, 0x1f, 0xfa,
  0xe8, 0x0d, 0x26, 0x03, 0x01, 0x0d, 0xf9, 0xff, 0xf3, 0x17, 0xe0, 0x11,
  0x07, 0x07, 0x17, 0x0c, 0x08, 0xf1, 0x11, 0xf4, 0x04, 0x07, 0xd1, 0x16,
  0x10, 0x16, 0x03, 0xf2, 0xfd, 0x0e, 0x08, 0x01, 0x0a, 0x10, 0x0b, 0x0d,
  0x0e, 0x07, 0xf9, 0x06, 0xdb, 0xed, 0xcf, 0x28, 0xf5, 0x01, 0x0c, 0x02,
  0x29, 0xfe, 0xb1, 0x0c, 0x0e, 0xff, 0x23, 0x03, 0x16, 0xd8, 0xff, 0xed,
  0xf2, 0x14, 0x08, 0xfc, 0x0b, 0x06, 0x0d, 0x1d, 0xf0, 0x0b, 0xee, 0xf9,
  0xf7, 0x1b, 0xf6, 0xc2, 0xfb, 0x04, 0x0c, 0xfa, 0x09, 0x13, 0xfc, 0xe9,
  0x11, 0xfa, 0x14, 0xec, 0x05, 0x0d, 0x19, 0x15, 0x0b, 0x1a, 0x23, 0x00,
  0x11, 0xf4, 0xdf, 0x0d, 0x1a, 0x23, 0xfb, 0x15, 0xda, 0x12, 0x12, 0xe1,
  0x05, 0xf9, 0xe2, 0xf0, 0xe6, 0x1a, 0x12, 0xed, 0xe3, 0x97, 0xed, 0xf7,
  0x00, 0x1f, 0xe9, 0xef, 0xc1, 0xf7, 0xf8, 0x11, 0xed, 0xf4, 0x17, 0xe8,
  0x07, 0xf3, 0xed, 0xd4, 0x1f, 0x08, 0x10, 0xc4, 0x00, 0xf1, 0xfc, 0x2f,
  0x0a, 0xfe, 0xfe, 0xf6, 0x07, 0xb5, 0xd0, 0x1f, 0xe0, 0x13, 0xf5, 0xde,
  0xc6, 0xb8, 0xe9, 0x10, 0xed, 0xf7, 0x18, 0xfd, 0x14, 0x0d, 0x1d, 0x11,
  0xfd, 0xef, 0x13, 0xca, 0x0f, 0xd9, 0x0e, 0x19, 0x01, 0xe5, 0xfe, 0xeb,
  0xe2, 0x00, 0xe9, 0x10, 0x06, 0xf1, 0xf5, 0xe8, 0x02, 0x0c, 0x09, 0xfb,
  0x02, 0xef, 0xfd, 0x0d, 0x18, 0x0d, 0x00, 0x0e, 0x0a, 0x0b, 0xf7, 0x9d,
  0x03, 0x0e, 0xfe, 0x02, 0x09, 0xdb, 0xf7, 0xf9, 0x0d, 0xf3, 0x13, 0x15,
  0xfd, 0x0d, 0xf4, 0x00, 0x03, 0xfa, 0xcb, 0xe2, 0xf1, 0xf4, 0xeb, 0xf4,
  0xe5, 0xfd, 0xf0, 0xe5, 0xff, 0xe5, 0xf6, 0x13, 0xdf, 0xed, 0xee, 0xee,
  0x08, 0x10, 0xe9, 0xf4, 0xce, 0x11, 0x0e, 0xdf, 0x00, 0xef, 0xd7, 0x14,
  0xfb, 0xfb, 0xd8, 0xe9, 0x12, 0xcc, 0xd3, 0x15, 0xe5, 0xf3, 0xe7, 0xe9,
  0x0c, 0x17, 0xe9, 0x0d, 0x01, 0x1e, 0xf3, 0xf5, 0x05, 0xd4, 0x09, 0xf7,
  0x0f, 0xfb, 0x17, 0xcb, 0xfb, 0xeb, 0xe5, 0x0d, 0xe4, 0x00, 0xd4, 0xf7,
  0x50, 0xfe, 0xff, 0xd8, 0xec, 0x06, 0xd7, 0xf2, 0xfc, 0x02, 0x04, 0x0f,
  0x11, 0x09, 0xfb, 0xdf, 0x01, 0xca, 0x02, 0xf7, 0xb6, 0xf9, 0xe9, 0xf1,
  0x0c, 0x1d, 0x1a, 0xe1, 0xf7, 0xfb, 0xef, 0xdf, 0xdd, 0xfc, 0xff, 0xf7,
  0xf9, 0xee, 0xe3, 0x08, 0x11, 0x08, 0x05, 0x08, 0xe1, 0xfc, 0x08, 0xee,
  0x16, 0xf7, 0x07, 0xf0, 0x04, 0x09, 0xdc, 0xc5, 0xae, 0xfb, 0x01, 0x1c,
  0xc2, 0x0a, 0xe1, 0x0c, 0x11, 0xfd, 0xd9, 0xdf, 0x02, 0xd8, 0x07, 0x08,
  0x16, 0xf0, 0x0a, 0x09, 0xf7, 0xf4, 0x15, 0xf6, 0xf6, 0x09, 0xfe, 0xe4,
  0x13, 0x08, 0xdb, 0x27, 0x0b, 0x0a, 0xf3, 0x13, 0x04, 0x09, 0x15, 0xef,
  0x0a, 0xec, 0xec, 0x11, 0xf6, 0xd0, 0xfe, 0x12, 0x13, 0xf9, 0xf3, 0xde,
  0x20, 0xf8, 0x0e, 0xdf, 0xea, 0xda, 0xdb, 0xfd, 0x07, 0xe6, 0xec, 0xd3,
  0xeb, 0xff, 0x03, 0x17, 0x08, 0xda, 0xf8, 0x09, 0x09, 0xdf, 0x0b, 0xf7,
  0x0e, 0x07, 0xe4, 0xfc, 0x19, 0xf1, 0xf4, 0xea, 0xfb, 0xfd, 0x04, 0xec,
  0x01, 0xce, 0x00, 0xf3, 0x1a, 0x0e, 0xeb, 0xf2, 0xf8, 0x03, 0xe3, 0x12,
  0xfd, 0x07, 0x0c, 0xdd, 0x0e, 0xf6, 0xca, 0xf5, 0x03, 0xd4, 0xeb, 0xf9,
  0x02, 0x16, 0xfc, 0x0f, 0x19, 0xf9, 0x00, 0xf2, 0x03, 0x21, 0x1b, 0xf8,
  0x1a, 0x0e, 0xf2, 0xf0, 0xe6, 0x1b, 0xf3, 0x14, 0xf2, 0x01, 0x08, 0x09,
  0x14, 0xfa, 0xff, 0xee, 0x0d, 0xfc, 0x15, 0x17, 0x1a, 0xff, 0xff, 0xff,
  0x04, 0x00, 0x00, 0x00, 0x28, 0x00, 0x00, 0x00, 0x06, 0x00, 0x00, 0x00,
  0x39, 0x00, 0x00, 0x00, 0xe5, 0xff, 0xff, 0xff, 0xa2, 0xff, 0xff, 0xff,
  0x97, 0xff, 0xff, 0xff, 0x27, 0x00, 0x00, 0x00, 0xee, 0xff, 0xff, 0xff,
  0x8d, 0x00, 0x00, 0x00, 0xa9, 0xff, 0xff, 0xff, 0x30, 0x00, 0x00, 0x00,
  0x4e, 0xff, 0xff, 0xff, 0x04, 0x00, 0x00, 0x00, 0x08, 0x00, 0x00, 0x00,
  0xff, 0xff, 0xff, 0xff, 0x00, 0x02, 0x00, 0x00, 0xec, 0xf0, 0xff, 0xff,
  0xf0, 0xf0, 0xff, 0xff, 0x0f, 0x00, 0x00, 0x00, 0x4d, 0x4c, 0x49, 0x52,
  0x20, 0x43, 0x6f, 0x6e, 0x76, 0x65, 0x72, 0x74, 0x65, 0x64, 0x2e, 0x00,
  0x01, 0x00, 0x00, 0x00, 0x14, 0x00, 0x00, 0x00, 0x00, 0x00, 0x0e, 0x00,
  0x18, 0x00, 0x14, 0x00, 0x10, 0x00, 0x0c, 0x00, 0x08, 0x00, 0x04, 0x00,
  0x0e, 0x00, 0x00, 0x00, 0x14, 0x00, 0x00, 0x00, 0x1c, 0x00, 0x00, 0x00,
  0xc0, 0x01, 0x00, 0x00, 0xc4, 0x01, 0x00, 0x00, 0xc8, 0x01, 0x00, 0x00,
  0x04, 0x00, 0x00, 0x00, 0x6d, 0x61, 0x69, 0x6e, 0x00, 0x00, 0x00, 0x00,
  0x06, 0x00, 0x00, 0x00, 0x5c, 0x01, 0x00, 0x00, 0x0c, 0x01, 0x00, 0x00,
  0xcc, 0x00, 0x00, 0x00, 0xa4, 0x00, 0x00, 0x00, 0x60, 0x00, 0x00, 0x00,
  0x14, 0x00, 0x00, 0x00, 0x00, 0x00, 0x0e, 0x00, 0x1a, 0x00, 0x14, 0x00,
  0x10, 0x00, 0x0c, 0x00, 0x0b, 0x00, 0x04, 0x00, 0x0e, 0x00, 0x00, 0x00,
  0x1c, 0x00, 0x00, 0x00, 0x00, 0x00, 0x00, 0x09, 0x1c, 0x00, 0x00, 0x00,
  0x20, 0x00, 0x00, 0x00, 0x03, 0x00, 0x00, 0x00, 0x00, 0x00, 0x06, 0x00,
  0x08, 0x00, 0x04, 0x00, 0x06, 0x00, 0x00, 0x00, 0x00, 0x00, 0x80, 0x3f,
  0x01, 0x00, 0x00, 0x00, 0x0f, 0x00, 0x00, 0x00, 0x01, 0x00, 0x00, 0x00,
  0x0e, 0x00, 0x00, 0x00, 0x00, 0x00, 0x0e, 0x00, 0x18, 0x00, 0x14, 0x00,
  0x10, 0x00, 0x0c, 0x00, 0x0b, 0x00, 0x04, 0x00, 0x0e, 0x00, 0x00, 0x00,
  0x14, 0x00, 0x00, 0x00, 0x00, 0x00, 0x00, 0x08, 0x10, 0x00, 0x00, 0x00,
  0x14, 0x00, 0x00, 0x00, 0x02, 0x00, 0x00, 0x00, 0xd0, 0xf1, 0xff, 0xff,
  0x01, 0x00, 0x00, 0x00, 0x0e, 0x00, 0x00, 0x00, 0x03, 0x00, 0x00, 0x00,
  0x0d, 0x00, 0x00, 0x00, 0x03, 0x00, 0x00, 0x00, 0x02, 0x00, 0x00, 0x00,
  0x00, 0x00, 0x0a, 0x00, 0x10, 0x00, 0x0c, 0x00, 0x08, 0x00, 0x04, 0x00,
  0x0a, 0x00, 0x00, 0x00, 0x0c, 0x00, 0x00, 0x00, 0x10, 0x00, 0x00, 0x00,
  0x01, 0x00, 0x00, 0x00, 0x01, 0x00, 0x00, 0x00, 0x0d, 0x00, 0x00, 0x00,
  0x02, 0x00, 0x00, 0x00, 0x0c, 0x00, 0x00, 0x00, 0x01, 0x00, 0x00, 0x00,
  0x86, 0xff, 0xff, 0xff, 0x10, 0x00, 0x00, 0x00, 0x00, 0x00, 0x00, 0x01,
  0x18, 0x00, 0x00, 0x00, 0x1c, 0x00, 0x00, 0x00, 0x78, 0xff, 0xff, 0xff,
  0x00, 0x00, 0x00, 0x01, 0x02, 0x00, 0x00, 0x00, 0x02, 0x00, 0x00, 0x00,
  0x01, 0x00, 0x00, 0x00, 0x0c, 0x00, 0x00, 0x00, 0x03, 0x00, 0x00, 0x00,
  0x0b, 0x00, 0x00, 0x00, 0x05, 0x00, 0x00, 0x00, 0x04, 0x00, 0x00, 0x00,
  0xc2, 0xff, 0xff, 0xff, 0x10, 0x00, 0x00, 0x00, 0x00, 0x00, 0x00, 0x01,
  0x18, 0x00, 0x00, 0x00, 0x1c, 0x00, 0x00, 0x00, 0xb4, 0xff, 0xff, 0xff,
  0x00, 0x00, 0x00, 0x01, 0x02, 0x00, 0x00, 0x00, 0x02, 0x00, 0x00, 0x00,
  0x01, 0x00, 0x00, 0x00, 0x0b, 0x00, 0x00, 0x00, 0x03, 0x00, 0x00, 0x00,
  0x0a, 0x00, 0x00, 0x00, 0x07, 0x00, 0x00, 0x00, 0x06, 0x00, 0x00, 0x00,
  0x00, 0x00, 0x0e, 0x00, 0x14, 0x00, 0x00, 0x00, 0x10, 0x00, 0x0c, 0x00,
  0x0b, 0x00, 0x04, 0x00, 0x0e, 0x00, 0x00, 0x00, 0x1c, 0x00, 0x00, 0x00,
  0x00, 0x00, 0x00, 0x01, 0x24, 0x00, 0x00, 0x00, 0x28, 0x00, 0x00, 0x00,
  0x0c, 0x00, 0x10, 0x00, 0x00, 0x00, 0x0c, 0x00, 0x08, 0x00, 0x07, 0x00,
  0x0c, 0x00, 0x00, 0x00, 0x00, 0x00, 0x00, 0x01, 0x02, 0x00, 0x00, 0x00,
  0x02, 0x00, 0x00, 0x00, 0x01, 0x00, 0x00, 0x00, 0x0a, 0x00, 0x00, 0x00,
  0x03, 0x00, 0x00, 0x00, 0x00, 0x00, 0x00, 0x00, 0x09, 0x00, 0x00, 0x00,
  0x08, 0x00, 0x00, 0x00, 0x01, 0x00, 0x00, 0x00, 0x0f, 0x00, 0x00, 0x00,
  0x01, 0x00, 0x00, 0x00, 0x00, 0x00, 0x00, 0x00, 0x10, 0x00, 0x00, 0x00,
  0x44, 0x0d, 0x00, 0x00, 0xe0, 0x0c, 0x00, 0x00, 0x60, 0x0c, 0x00, 0x00,
  0xf4, 0x0b, 0x00, 0x00, 0x00, 0x0a, 0x00, 0x00, 0x1c, 0x08, 0x00, 0x00,
  0xe8, 0x06, 0x00, 0x00, 0xc4, 0x05, 0x00, 0x00, 0xf0, 0x04, 0x00, 0x00,
  0xcc, 0x03, 0x00, 0x00, 0xf8, 0x02, 0x00, 0x00, 0x24, 0x02, 0x00, 0x00,
  0x50, 0x01, 0x00, 0x00, 0xe4, 0x00, 0x00, 0x00, 0x60, 0x00, 0x00, 0x00,
  0x04, 0x00, 0x00, 0x00, 0x12, 0xf3, 0xff, 0xff, 0x00, 0x00, 0x00, 0x01,
  0x14, 0x00, 0x00, 0x00, 0x30, 0x00, 0x00, 0x00, 0x10, 0x00, 0x00, 0x00,
  0x00, 0x00, 0x00, 0x09, 0x34, 0x00, 0x00, 0x00, 0xfc, 0xf2, 0xff, 0xff,
  0x08, 0x00, 0x00, 0x00, 0x10, 0x00, 0x00, 0x00, 0x01, 0x00, 0x00, 0x00,
  0x80, 0xff, 0xff, 0xff, 0xff, 0xff, 0xff, 0xff, 0x01, 0x00, 0x00, 0x00,
  0x00, 0x00, 0x80, 0x3b, 0x08, 0x00, 0x00, 0x00, 0x49, 0x64, 0x65, 0x6e,
  0x74, 0x69, 0x74, 0x79, 0x00, 0x00, 0x00, 0x00, 0x02, 0x00, 0x00, 0x00,
  0x01, 0x00, 0x00, 0x00, 0x0a, 0x00, 0x00, 0x00, 0x6a, 0xf3, 0xff, 0xff,
  0x00, 0x00, 0x00, 0x01, 0x14, 0x00, 0x00, 0x00, 0x34, 0x00, 0x00, 0x00,
  0x0f, 0x00, 0x00, 0x00, 0x00, 0x00, 0x00, 0x09, 0x5c, 0x00, 0x00, 0x00,
  0x54, 0xf3, 0xff, 0xff, 0x08, 0x00, 0x00, 0x00, 0x14, 0x00, 0x00, 0x00,
  0x01, 0x00, 0x00, 0x00, 0x2b, 0x00, 0x00, 0x00, 0x00, 0x00, 0x00, 0x00,
  0x00, 0x00, 0x00, 0x00, 0x01, 0x00, 0x00, 0x00, 0xa3, 0x62, 0x02, 0x3f,
  0x2e, 0x00, 0x00, 0x00, 0x6d, 0x6f, 0x64, 0x65, 0x6c, 0x5f, 0x32, 0x2f,
  0x64, 0x65, 0x6e, 0x73, 0x65, 0x5f, 0x32, 0x2f, 0x4d, 0x61, 0x74, 0x4d,
  0x75, 0x6c, 0x3b, 0x6d, 0x6f, 0x64, 0x65, 0x6c, 0x5f, 0x32, 0x2f, 0x64,
  0x65, 0x6e, 0x73, 0x65, 0x5f, 0x32, 0x2f, 0x42, 0x69, 0x61, 0x73, 0x41,
  0x64, 0x64, 0x00, 0x00, 0x02, 0x00, 0x00, 0x00, 0x01, 0x00, 0x00, 0x00,
  0x0a, 0x00, 0x00, 0x00, 0xea, 0xf3, 0xff, 0xff, 0x00, 0x00, 0x00, 0x01,
  0x14, 0x00, 0x00, 0x00, 0x30, 0x00, 0x00, 0x00, 0x0e, 0x00, 0x00, 0x00,
  0x00, 0x00, 0x00, 0x09, 0x44, 0x00, 0x00, 0x00, 0xd4, 0xf3, 0xff, 0xff,
  0x08, 0x00, 0x00, 0x00, 0x10, 0x00, 0x00, 0x00, 0x01, 0x00, 0x00, 0x00,
  0x80, 0xff, 0xff, 0xff, 0xff, 0xff, 0xff, 0xff, 0x01, 0x00, 0x00, 0x00,
  0x3b, 0x0b, 0x0e, 0x3e, 0x19, 0x00, 0x00, 0x00, 0x6d, 0x6f, 0x64, 0x65,
  0x6c, 0x5f, 0x32, 0x2f, 0x66, 0x6c, 0x61, 0x74, 0x74, 0x65, 0x6e, 0x5f,
  0x32, 0x2f, 0x52, 0x65, 0x73, 0x68, 0x61, 0x70, 0x65, 0x00, 0x00, 0x00,
  0x02, 0x00, 0x00, 0x00, 0x01, 0x00, 0x00, 0x00, 0x00, 0x02, 0x00, 0x00,
  0x52, 0xf4, 0xff, 0xff, 0x00, 0x00, 0x00, 0x01, 0x14, 0x00, 0x00, 0x00,
  0x34, 0x00, 0x00, 0x00, 0x0d, 0x00, 0x00, 0x00, 0x00, 0x00, 0x00, 0x09,
  0xa4, 0x00, 0x00, 0x00, 0x3c, 0xf4, 0xff, 0xff, 0x08, 0x00, 0x00, 0x00,
  0x14, 0x00, 0x00, 0x00, 0x01, 0x00, 0x00, 0x00, 0x80, 0xff, 0xff, 0xff,
  0xff, 0xff, 0xff, 0xff, 0x00, 0x00, 0x00, 0x00, 0x01, 0x00, 0x00, 0x00,
  0x3b, 0x0b, 0x0e, 0x3e, 0x77, 0x00, 0x00, 0x00, 0x6d, 0x6f, 0x64, 0x65,
  0x6c, 0x5f, 0x32, 0x2f, 0x63, 0x6f, 0x6e, 0x76, 0x32, 0x64, 0x5f, 0x38,
  0x2f, 0x52, 0x65, 0x6c, 0x75, 0x3b, 0x6d, 0x6f, 0x64, 0x65, 0x6c, 0x5f,
  0x32, 0x2f, 0x63, 0x6f, 0x6e, 0x76, 0x32, 0x64, 0x5f, 0x38, 0x2f, 0x42,
  0x69, 0x61, 0x73, 0x41, 0x64, 0x64, 0x3b, 0x6d, 0x6f, 0x64, 0x65, 0x6c,
  0x5f, 0x32, 0x2f, 0x63, 0x6f, 0x6e, 0x76, 0x32, 0x64, 0x5f, 0x38, 0x2f,
  0x43, 0x6f, 0x6e, 0x76, 0x32, 0x44, 0x3b, 0x6d, 0x6f, 0x64, 0x65, 0x6c,
  0x5f, 0x32, 0x2f, 0x63, 0x6f, 0x6e, 0x76, 0x32, 0x64, 0x5f, 0x38, 0x2f,
  0x42, 0x69, 0x61, 0x73, 0x41, 0x64, 0x64, 0x2f, 0x52, 0x65, 0x61, 0x64,
  0x56, 0x61, 0x72, 0x69, 0x61, 0x62, 0x6c, 0x65, 0x4f, 0x70, 0x2f, 0x72,
  0x65, 0x73, 0x6f, 0x75, 0x72, 0x63, 0x65, 0x00, 0x04, 0x00, 0x00, 0x00,
  0x01, 0x00, 0x00, 0x00, 0x04, 0x00, 0x00, 0x00, 0x04, 0x00, 0x00, 0x00,
  0x20, 0x00, 0x00, 0x00, 0x22, 0xf5, 0xff, 0xff, 0x00, 0x00, 0x00, 0x01,
  0x14, 0x00, 0x00, 0x00, 0x34, 0x00, 0x00, 0x00, 0x0c, 0x00, 0x00, 0x00,
  0x00, 0x00, 0x00, 0x09, 0xa4, 0x00, 0x00, 0x00, 0x0c, 0xf5, 0xff, 0xff,
  0x08, 0x00, 0x00, 0x00, 0x14, 0x00, 0x00, 0x00, 0x01, 0x00, 0x00, 0x00,
  0x80, 0xff, 0xff, 0xff, 0xff, 0xff, 0xff, 0xff, 0x00, 0x00, 0x00, 0x00,
  0x01, 0x00, 0x00, 0x00, 0x2f, 0x4f, 0x47, 0x3d, 0x77, 0x00, 0x00, 0x00,
  0x6d, 0x6f, 0x64, 0x65, 0x6c, 0x5f, 0x32, 0x2f, 0x63, 0x6f, 0x6e, 0x76,
  0x32, 0x64, 0x5f, 0x37, 0x2f, 0x52, 0x65, 0x6c, 0x75, 0x3b, 0x6d, 0x6f,
  0x64, 0x65, 0x6c, 0x5f, 0x32, 0x2f, 0x63, 0x6f, 0x6e, 0x76, 0x32, 0x64,
  0x5f, 0x37, 0x2f, 0x42, 0x69, 0x61, 0x73, 0x41, 0x64, 0x64, 0x3b, 0x6d,
  0x6f, 0x64, 0x65, 0x6c, 0x5f, 0x32, 0x2f, 0x63, 0x6f, 0x6e, 0x76, 0x32,
  0x64, 0x5f, 0x37, 0x2f, 0x43, 0x6f, 0x6e, 0x76, 0x32, 0x44, 0x3b, 0x6d,
  0x6f, 0x64, 0x65, 0x6c, 0x5f, 0x32, 0x2f, 0x63, 0x6f, 0x6e, 0x76, 0x32,
  0x64, 0x5f, 0x37, 0x2f, 0x42, 0x69, 0x61, 0x73, 0x41, 0x64, 0x64, 0x2f,
  0x52, 0x65, 0x61, 0x64, 0x56, 0x61, 0x72, 0x69, 0x61, 0x62, 0x6c, 0x65,
  0x4f, 0x70, 0x2f, 0x72, 0x65, 0x73, 0x6f, 0x75, 0x72, 0x63, 0x65, 0x00,
  0x04, 0x00, 0x00, 0x00, 0x01, 0x00, 0x00, 0x00, 0x08, 0x00, 0x00, 0x00,
  0x08, 0x00, 0x00, 0x00, 0x10, 0x00, 0x00, 0x00, 0xf2, 0xf5, 0xff, 0xff,
  0x00, 0x00, 0x00, 0x01, 0x14, 0x00, 0x00, 0x00, 0x30, 0x00, 0x00, 0x00,
  0x0b, 0x00, 0x00, 0x00, 0x00, 0x00, 0x00, 0x09, 0xa4, 0x00, 0x00, 0x00,
  0xdc, 0xf5, 0xff, 0xff, 0x08, 0x00, 0x00, 0x00, 0x10, 0x00, 0x00, 0x00,
  0x01, 0x00, 0x00, 0x00, 0x80, 0xff, 0xff, 0xff, 0xff, 0xff, 0xff, 0xff,
  0x01, 0x00, 0x00, 0x00, 0x72, 0x8b, 0x9a, 0x3c, 0x78, 0x00, 0x00, 0x00,
  0x6d, 0x6f, 0x64, 0x65, 0x6c, 0x5f, 0x32, 0x2f, 0x63, 0x6f, 0x6e, 0x76,
  0x32, 0x64, 0x5f, 0x36, 0x2f, 0x52, 0x65, 0x6c, 0x75, 0x3b, 0x6d, 0x6f,
  0x64, 0x65, 0x6c, 0x5f, 0x32, 0x2f, 0x63, 0x6f, 0x6e, 0x76, 0x32, 0x64,
  0x5f, 0x36, 0x2f, 0x42, 0x69, 0x61, 0x73, 0x41, 0x64, 0x64, 0x3b, 0x6d,
  0x6f, 0x64, 0x65, 0x6c, 0x5f, 0x32, 0x2f, 0x63, 0x6f, 0x6e, 0x76, 0x32,
  0x64, 0x5f, 0x36, 0x2f, 0x43, 0x6f, 0x6e, 0x76, 0x32, 0x44, 0x3b, 0x6d,
  0x6f, 0x64, 0x65, 0x6c, 0x5f, 0x32, 0x2f, 0x63, 0x6f, 0x6e, 0x76, 0x32,
  0x64, 0x5f, 0x36, 0x2f, 0x42, 0x69, 0x61, 0x73, 0x41, 0x64, 0x64, 0x2f,
  0x52, 0x65, 0x61, 0x64, 0x56, 0x61, 0x72, 0x69, 0x61, 0x62, 0x6c, 0x65,
  0x4f, 0x70, 0x2f, 0x72, 0x65, 0x73, 0x6f, 0x75, 0x72, 0x63, 0x65, 0x31,
  0x00, 0x00, 0x00, 0x00, 0x04, 0x00, 0x00, 0x00, 0x01, 0x00, 0x00, 0x00,
  0x10, 0x00, 0x00, 0x00, 0x10, 0x00, 0x00, 0x00, 0x08, 0x00, 0x00, 0x00,
  0xc2, 0xf6, 0xff, 0xff, 0x00, 0x00, 0x00, 0x01, 0x14, 0x00, 0x00, 0x00,
  0x84, 0x00, 0x00, 0x00, 0x0a, 0x00, 0x00, 0x00, 0x00, 0x00, 0x00, 0x09,
  0xf4, 0x00, 0x00, 0x00, 0xac, 0xf6, 0xff, 0xff, 0x08, 0x00, 0x00, 0x00,
  0x48, 0x00, 0x00, 0x00, 0x08, 0x00, 0x00, 0x00, 0x00, 0x00, 0x00, 0x00,
  0x00, 0x00, 0x00, 0x00, 0x00, 0x00, 0x00, 0x00, 0x00, 0x00, 0x00, 0x00,
  0x00, 0x00, 0x00, 0x00, 0x00, 0x00, 0x00, 0x00, 0x00, 0x00, 0x00, 0x00,
  0x00, 0x00, 0x00, 0x00, 0x00, 0x00, 0x00, 0x00, 0x00, 0x00, 0x00, 0x00,
  0x00, 0x00, 0x00, 0x00, 0x00, 0x00, 0x00, 0x00, 0x00, 0x00, 0x00, 0x00,
  0x00, 0x00, 0x00, 0x00, 0x00, 0x00, 0x00, 0x00, 0x00, 0x00, 0x00, 0x00,
  0x08, 0x00, 0x00, 0x00, 0xe7, 0x05, 0x96, 0x37, 0x55, 0xd9, 0x99, 0x37,
  0x3e, 0x83, 0x90, 0x37, 0x8e, 0x13, 0xc8, 0x37, 0x74, 0xc3, 0x1a, 0x38,
  0xb6, 0x5c, 0x75, 0x37, 0xf9, 0x4a, 0x17, 0x38, 0xa2, 0xfd, 0x7a, 0x37,
  0x77, 0x00, 0x00, 0x00, 0x6d, 0x6f, 0x64, 0x65, 0x6c, 0x5f, 0x32, 0x2f,
  0x63, 0x6f, 0x6e, 0x76, 0x32, 0x64, 0x5f, 0x36, 0x2f, 0x52, 0x65, 0x6c,
  0x75, 0x3b, 0x6d, 0x6f, 0x64, 0x65, 0x6c, 0x5f, 0x32, 0x2f, 0x63, 0x6f,
  0x6e, 0x76, 0x32, 0x64, 0x5f, 0x36, 0x2f, 0x42, 0x69, 0x61, 0x73, 0x41,
  0x64, 0x64, 0x3b, 0x6d, 0x6f, 0x64, 0x65, 0x6c, 0x5f, 0x32, 0x2f, 0x63,
  0x6f, 0x6e, 0x76, 0x32, 0x64, 0x5f, 0x36, 0x2f, 0x43, 0x6f, 0x6e, 0x76,
  0x32, 0x44, 0x3b, 0x6d, 0x6f, 0x64, 0x65, 0x6c, 0x5f, 0x32, 0x2f, 0x63,
  0x6f, 0x6e, 0x76, 0x32, 0x64, 0x5f, 0x36, 0x2f, 0x42, 0x69, 0x61, 0x73,
  0x41, 0x64, 0x64, 0x2f, 0x52, 0x65, 0x61, 0x64, 0x56, 0x61, 0x72, 0x69,
  0x61, 0x62, 0x6c, 0x65, 0x4f, 0x70, 0x2f, 0x72, 0x65, 0x73, 0x6f, 0x75,
  0x72, 0x63, 0x65, 0x00, 0x04, 0x00, 0x00, 0x00, 0x08, 0x00, 0x00, 0x00,
  0x03, 0x00, 0x00, 0x00, 0x03, 0x00, 0x00, 0x00, 0x03, 0x00, 0x00, 0x00,
  0xe2, 0xf7, 0xff, 0xff, 0x00, 0x00, 0x00, 0x01, 0x14, 0x00, 0x00, 0x00,
  0x84, 0x00, 0x00, 0x00, 0x09, 0x00, 0x00, 0x00, 0x00, 0x00, 0x00, 0x02,
  0xb0, 0x00, 0x00, 0x00, 0xcc, 0xf7, 0xff, 0xff, 0x08, 0x00, 0x00, 0x00,
  0x48, 0x00, 0x00, 0x00, 0x08, 0x00, 0x00, 0x00, 0x00, 0x00, 0x00, 0x00,
  0x00, 0x00, 0x00, 0x00, 0x00, 0x00, 0x00, 0x00, 0x00, 0x00, 0x00, 0x00,
  0x00, 0x00, 0x00, 0x00, 0x00, 0x00, 0x00, 0x00, 0x00, 0x00, 0x00, 0x00,
  0x00, 0x00, 0x00, 0x00, 0x00, 0x00, 0x00, 0x00, 0x00, 0x00, 0x00, 0x00,
  0x00, 0x00, 0x00, 0x00, 0x00, 0x00, 0x00, 0x00, 0x00, 0x00, 0x00, 0x00,
  0x00, 0x00, 0x00, 0x00, 0x00, 0x00, 0x00, 0x00, 0x00, 0x00, 0x00, 0x00,
  0x08, 0x00, 0x00, 0x00, 0xe7, 0x05, 0x96, 0x37, 0x55, 0xd9, 0x99, 0x37,
  0x3e, 0x83, 0x90, 0x37, 0x8e, 0x13, 0xc8, 0x37, 0x74, 0xc3, 0x1a, 0x38,
  0xb6, 0x5c, 0x75, 0x37, 0xf9, 0x4a, 0x17, 0x38, 0xa2, 0xfd, 0x7a, 0x37,
  0x30, 0x00, 0x00, 0x00, 0x6d, 0x6f, 0x64, 0x65, 0x6c, 0x5f, 0x32, 0x2f,
  0x63, 0x6f, 0x6e, 0x76, 0x32, 0x64, 0x5f, 0x36, 0x2f, 0x42, 0x69, 0x61,
  0x73, 0x41, 0x64, 0x64, 0x2f, 0x52, 0x65, 0x61, 0x64, 0x56, 0x61, 0x72,
  0x69, 0x61, 0x62, 0x6c, 0x65, 0x4f, 0x70, 0x2f, 0x72, 0x65, 0x73, 0x6f,
  0x75, 0x72, 0x63, 0x65, 0x00, 0x00, 0x00, 0x00, 0x01, 0x00, 0x00, 0x00,
  0x08, 0x00, 0x00, 0x00, 0xb2, 0xf8, 0xff, 0xff, 0x00, 0x00, 0x00, 0x01,
  0x14, 0x00, 0x00, 0x00, 0xe4, 0x00, 0x00, 0x00, 0x08, 0x00, 0x00, 0x00,
  0x00, 0x00, 0x00, 0x09, 0xf4, 0x00, 0x00, 0x00, 0x9c, 0xf8, 0xff, 0xff,
  0x08, 0x00, 0x00, 0x00, 0x88, 0x00, 0x00, 0x00, 0x10, 0x00, 0x00, 0x00,
  0x00, 0x00, 0x00, 0x00, 0x00, 0x00, 0x00, 0x00, 0x00, 0x00, 0x00, 0x00,
  0x00, 0x00, 0x00, 0x00, 0x00, 0x00, 0x00, 0x00, 0x00, 0x00, 0x00, 0x00,
  0x00, 0x00, 0x00, 0x00, 0x00, 0x00, 0x00, 0x00, 0x00, 0x00, 0x00, 0x00,
  0x00, 0x00, 0x00, 0x00, 0x00, 0x00, 0x00, 0x00, 0x00, 0x00, 0x00, 0x00,
  0x00, 0x00, 0x00, 0x00, 0x00, 0x00, 0x00, 0x00, 0x00, 0x00, 0x00, 0x00,
  0x00, 0x00, 0x00, 0x00, 0x00, 0x00, 0x00, 0x00, 0x00, 0x00, 0x00, 0x00,
  0x00, 0x00, 0x00, 0x00, 0x00, 0x00, 0x00, 0x00, 0x00, 0x00, 0x00, 0x00,
  0x00, 0x00, 0x00, 0x00, 0x00, 0x00, 0x00, 0x00, 0x00, 0x00, 0x00, 0x00,
  0x00, 0x00, 0x00, 0x00, 0x00, 0x00, 0x00, 0x00, 0x00, 0x00, 0x00, 0x00,
  0x00, 0x00, 0x00, 0x00, 0x00, 0x00, 0x00, 0x00, 0x00, 0x00, 0x00, 0x00,
  0x00, 0x00, 0x00, 0x00, 0x00, 0x00, 0x00, 0x00, 0x10, 0x00, 0x00, 0x00,
  0x83, 0x30, 0xb3, 0x3b, 0x5e, 0x5e, 0x57, 0x3b, 0x72, 0x1d, 0x90, 0x3b,
  0x3d, 0x8d, 0xf2, 0x3b, 0x17, 0x57, 0xa8, 0x3b, 0xea, 0xd9, 0x76, 0x3b,
  0xe3, 0xa7, 0xbc, 0x3b, 0x98, 0x31, 0xab, 0x3b, 0xfc, 0xe1, 0xb0, 0x3b,
  0xce, 0xf1, 0xbb, 0x3b, 0x2e, 0xfd, 0xc4, 0x3b, 0x16, 0x25, 0xba, 0x3b,
  0x3e, 0xdd, 0xbd, 0x3b, 0x81, 0xd6, 0xa8, 0x3b, 0x99, 0xa5, 0x95, 0x3b,
  0x1a, 0x88, 0x88, 0x3b, 0x17, 0x00, 0x00, 0x00, 0x6d, 0x6f, 0x64, 0x65,
  0x6c, 0x5f, 0x32, 0x2f, 0x63, 0x6f, 0x6e, 0x76, 0x32, 0x64, 0x5f, 0x37,
  0x2f, 0x43, 0x6f, 0x6e, 0x76, 0x32, 0x44, 0x00, 0x04, 0x00, 0x00, 0x00,
  0x10, 0x00, 0x00, 0x00, 0x03, 0x00, 0x00, 0x00, 0x03, 0x00, 0x00, 0x00,
  0x08, 0x00, 0x00, 0x00, 0xd2, 0xf9, 0xff, 0xff, 0x00, 0x00, 0x00, 0x01,
  0x14, 0x00, 0x00, 0x00, 0xe4, 0x00, 0x00, 0x00, 0x07, 0x00, 0x00, 0x00,
  0x00, 0x00, 0x00, 0x02, 0x10, 0x01, 0x00, 0x00, 0xbc, 0xf9, 0xff, 0xff,
  0x08, 0x00, 0x00, 0x00, 0x88, 0x00, 0x00, 0x00, 0x10, 0x00, 0x00, 0x00,
  0x00, 0x00, 0x00, 0x00, 0x00, 0x00, 0x00, 0x00, 0x00, 0x00, 0x00, 0x00,
  0x00, 0x00, 0x00, 0x00, 0x00, 0x00, 0x00, 0x00, 0x00, 0x00, 0x00, 0x00,
  0x00, 0x00, 0x00, 0x00, 0x00, 0x00, 0x00, 0x00, 0x00, 0x00, 0x00, 0x00,
  0x00, 0x00, 0x00, 0x00, 0x00, 0x00, 0x00, 0x00, 0x00, 0x00, 0x00, 0x00,
  0x00, 0x00, 0x00, 0x00, 0x00, 0x00, 0x00, 0x00, 0x00, 0x00, 0x00, 0x00,
  0x00, 0x00, 0x00, 0x00, 0x00, 0x00, 0x00, 0x00, 0x00, 0x00, 0x00, 0x00,
  0x00, 0x00, 0x00, 0x00, 0x00, 0x00, 0x00, 0x00, 0x00, 0x00, 0x00, 0x00,
  0x00, 0x00, 0x00, 0x00, 0x00, 0x00, 0x00, 0x00, 0x00, 0x00, 0x00, 0x00,
  0x00, 0x00, 0x00, 0x00, 0x00, 0x00, 0x00, 0x00, 0x00, 0x00, 0x00, 0x00,
  0x00, 0x00, 0x00, 0x00, 0x00, 0x00, 0x00, 0x00, 0x00, 0x00, 0x00, 0x00,
  0x00, 0x00, 0x00, 0x00, 0x00, 0x00, 0x00, 0x00, 0x10, 0x00, 0x00, 0x00,
  0x94, 0x59, 0xd8, 0x38, 0x15, 0x04, 0x82, 0x38, 0x6d, 0x00, 0xae, 0x38,
  0x15, 0x6d, 0x12, 0x39, 0x2c, 0x40, 0xcb, 0x38, 0x8d, 0x05, 0x95, 0x38,
  0x83, 0xc7, 0xe3, 0x38, 0x2b, 0xb2, 0xce, 0x38, 0x96, 0x90, 0xd5, 0x38,
  0xac, 0xeb, 0xe2, 0x38, 0x36, 0xd7, 0xed, 0x38, 0x69, 0xbf, 0xe0, 0x38,
  0x06, 0x3d, 0xe5, 0x38, 0x03, 0xda, 0xcb, 0x38, 0x43, 0xae, 0xb4, 0x38,
  0x7d, 0xd8, 0xa4, 0x38, 0x30, 0x00, 0x00, 0x00, 0x6d, 0x6f, 0x64, 0x65,
  0x6c, 0x5f, 0x32, 0x2f, 0x63, 0x6f, 0x6e, 0x76, 0x32, 0x64, 0x5f, 0x37,
  0x2f, 0x42, 0x69, 0x61, 0x73, 0x41, 0x64, 0x64, 0x2f, 0x52, 0x65, 0x61,
  0x64, 0x56, 0x61, 0x72, 0x69, 0x61, 0x62, 0x6c, 0x65, 0x4f, 0x70, 0x2f,
  0x72, 0x65, 0x73, 0x6f, 0x75, 0x72, 0x63, 0x65, 0x00, 0x00, 0x00, 0x00,
  0x01, 0x00, 0x00, 0x00, 0x10, 0x00, 0x00, 0x00, 0x02, 0xfb, 0xff, 0xff,
  0x00, 0x00, 0x00, 0x01, 0x14, 0x00, 0x00, 0x00, 0xa4, 0x01, 0x00, 0x00,
  0x06, 0x00, 0x00, 0x00, 0x00, 0x00, 0x00, 0x09, 0xb4, 0x01, 0x00, 0x00,
  0xec, 0xfa, 0xff, 0xff, 0x08, 0x00, 0x00, 0x00, 0x08, 0x01, 0x00, 0x00,
  0x20, 0x00, 0x00, 0x00, 0x00, 0x00, 0x00, 0x00, 0x00, 0x00, 0x00, 0x00,
  0x00, 0x00, 0x00, 0x00, 0x00, 0x00, 0x00, 0x00, 0x00, 0x00, 0x00, 0x00,
  0x00, 0x00, 0x00, 0x00, 0x00, 0x00, 0x00, 0x00, 0x00, 0x00, 0x00, 0x00,
  0x00, 0x00, 0x00, 0x00, 0x00, 0x00, 0x00, 0x00, 0x00, 0x00, 0x00, 0x00,
  0x00, 0x00, 0x00, 0x00, 0x00, 0x00, 0x00, 0x00, 0x00, 0x00, 0x00, 0x00,
  0x00, 0x00, 0x00, 0x00, 0x00, 0x00, 0x00, 0x00, 0x00, 0x00, 0x00, 0x00,
  0x00, 0x00, 0x00, 0x00, 0x00, 0x00, 0x00, 0x00, 0x00, 0x00, 0x00, 0x00,
  0x00, 0x00, 0x00, 0x00, 0x00, 0x00, 0x00, 0x00, 0x00, 0x00, 0x00, 0x00,
  0x00, 0x00, 0x00, 0x00, 0x00, 0x00, 0x00, 0x00, 0x00, 0x00, 0x00, 0x00,
  0x00, 0x00, 0x00, 0x00, 0x00, 0x00, 0x00, 0x00, 0x00, 0x00, 0x00, 0x00,
  0x00, 0x00, 0x00, 0x00, 0x00, 0x00, 0x00, 0x00, 0x00, 0x00, 0x00, 0x00,
  0x00, 0x00, 0x00, 0x00, 0x00, 0x00, 0x00, 0x00, 0x00, 0x00, 0x00, 0x00,
  0x00, 0x00, 0x00, 0x00, 0x00, 0x00, 0x00, 0x00, 0x00, 0x00, 0x00, 0x00,
  0x00, 0x00, 0x00, 0x00, 0x00, 0x00, 0x00, 0x00, 0x00, 0x00, 0x00, 0x00,
  0x00, 0x00, 0x00, 0x00, 0x00, 0x00, 0x00, 0x00, 0x00, 0x00, 0x00, 0x00,
  0x00, 0x00, 0x00, 0x00, 0x00, 0x00, 0x00, 0x00, 0x00, 0x00, 0x00, 0x00,
  0x00, 0x00, 0x00, 0x00, 0x00, 0x00, 0x00, 0x00, 0x00, 0x00, 0x00, 0x00,
  0x00, 0x00, 0x00, 0x00, 0x00, 0x00, 0x00, 0x00, 0x00, 0x00, 0x00, 0x00,
  0x00, 0x00, 0x00, 0x00, 0x00, 0x00, 0x00, 0x00, 0x00, 0x00, 0x00, 0x00,
  0x00, 0x00, 0x00, 0x00, 0x00, 0x00, 0x00, 0x00, 0x00, 0x00, 0x00, 0x00,
  0x00, 0x00, 0x00, 0x00, 0x00, 0x00, 0x00, 0x00, 0x00, 0x00, 0x00, 0x00,
  0x00, 0x00, 0x00, 0x00, 0x00, 0x00, 0x00, 0x00, 0x20, 0x00, 0x00, 0x00,
  0x8d, 0x5e, 0x6c, 0x3b, 0x5f, 0x2f, 0x0d, 0x3b, 0x60, 0xa6, 0x6e, 0x3b,
  0x57, 0x27, 0x7e, 0x3b, 0x02, 0xc2, 0xab, 0x3b, 0x50, 0xd5, 0x5b, 0x3b,
  0x93, 0xc7, 0x5f, 0x3b, 0x76, 0xb2, 0x59, 0x3b, 0xb3, 0xd8, 0x71, 0x3b,
  0x80, 0x7a, 0x8a, 0x3b, 0x92, 0x57, 0x80, 0x3b, 0xbf, 0xde, 0x47, 0x3b,
  0x1a, 0x8b, 0x65, 0x3b, 0x4e, 0xe9, 0x57, 0x3b, 0x5b, 0xf3, 0x77, 0x3b,
  0x11, 0x54, 0x59, 0x3b, 0x33, 0xc9, 0x9c, 0x3b, 0x6a, 0xce, 0x44, 0x3b,
  0x51, 0x04, 0x99, 0x3b, 0x9d, 0x89, 0x62, 0x3b, 0x9d, 0x6a, 0x69, 0x3b,
  0x3d, 0x67, 0x47, 0x3b, 0x2a, 0x4a, 0x7d, 0x3b, 0x2d, 0xb7, 0x7e, 0x3b,
  0x77, 0xdc, 0x62, 0x3b, 0x0d, 0x0e, 0x6f, 0x3b, 0xe8, 0x00, 0x32, 0x3b,
  0x27, 0x9d, 0x57, 0x3b, 0x2c, 0x2d, 0x55, 0x3b, 0xe5, 0xf1, 0x47, 0x3b,
  0x8b, 0xa1, 0x89, 0x3b, 0x71, 0xd6, 0x61, 0x3b, 0x17, 0x00, 0x00, 0x00,
  0x6d, 0x6f, 0x64, 0x65, 0x6c, 0x5f, 0x32, 0x2f, 0x63, 0x6f, 0x6e, 0x76,
  0x32, 0x64, 0x5f, 0x38, 0x2f, 0x43, 0x6f, 0x6e, 0x76, 0x32, 0x44, 0x00,
  0x04, 0x00, 0x00, 0x00, 0x20, 0x00, 0x00, 0x00, 0x03, 0x00, 0x00, 0x00,
  0x03, 0x00, 0x00, 0x00, 0x10, 0x00, 0x00, 0x00, 0xe2, 0xfc, 0xff, 0xff,
  0x00, 0x00, 0x00, 0x01, 0x14, 0x00, 0x00, 0x00, 0xa4, 0x01, 0x00, 0x00,
  0x05, 0x00, 0x00, 0x00, 0x00, 0x00, 0x00, 0x02, 0xd0, 0x01, 0x00, 0x00,
  0xcc, 0xfc, 0xff, 0xff, 0x08, 0x00, 0x00, 0x00, 0x08, 0x01, 0x00, 0x00,
  0x20, 0x00, 0x00, 0x00, 0x00, 0x00, 0x00, 0x00, 0x00, 0x00, 0x00, 0x00,
  0x00, 0x00, 0x00, 0x00, 0x00, 0x00, 0x00, 0x00, 0x00, 0x00, 0x00, 0x00,
  0x00, 0x00, 0x00, 0x00, 0x00, 0x00, 0x00, 0x00, 0x00, 0x00, 0x00, 0x00,
  0x00, 0x00, 0x00, 0x00, 0x00, 0x00, 0x00, 0x00, 0x00, 0x00, 0x00, 0x00,
  0x00, 0x00, 0x00, 0x00, 0x00, 0x00, 0x00, 0x00, 0x00, 0x00, 0x00, 0x00,
  0x00, 0x00, 0x00, 0x00, 0x00, 0x00, 0x00, 0x00, 0x00, 0x00, 0x00, 0x00,
  0x00, 0x00, 0x00, 0x00, 0x00, 0x00, 0x00, 0x00, 0x00, 0x00, 0x00, 0x00,
  0x00, 0x00, 0x00, 0x00, 0x00, 0x00, 0x00, 0x00, 0x00, 0x00, 0x00, 0x00,
  0x00, 0x00, 0x00, 0x00, 0x00, 0x00, 0x00, 0x00, 0x00, 0x00, 0x00, 0x00,
  0x00, 0x00, 0x00, 0x00, 0x00, 0x00, 0x00, 0x00, 0x00, 0x00, 0x00, 0x00,
  0x00, 0x00, 0x00, 0x00, 0x00, 0x00, 0x00, 0x00, 0x00, 0x00, 0x00, 0x00,
  0x00, 0x00, 0x00, 0x00, 0x00, 0x00, 0x00, 0x00, 0x00, 0x00, 0x00, 0x00,
  0x00, 0x00, 0x00, 0x00, 0x00, 0x00, 0x00, 0x00, 0x00, 0x00, 0x00, 0x00,
  0x00, 0x00, 0x00, 0x00, 0x00, 0x00, 0x00, 0x00, 0x00, 0x00, 0x00, 0x00,
  0x00, 0x00, 0x00, 0x00, 0x00, 0x00, 0x00, 0x00, 0x00, 0x00, 0x00, 0x00,
  0x00, 0x00, 0x00, 0x00, 0x00, 0x00, 0x00, 0x00, 0x00, 0x00, 0x00, 0x00,
  0x00, 0x00, 0x00, 0x00, 0x00, 0x00, 0x00, 0x00, 0x00, 0x00, 0x00, 0x00,
  0x00, 0x00, 0x00, 0x00, 0x00, 0x00, 0x00, 0x00, 0x00, 0x00, 0x00, 0x00,
  0x00, 0x00, 0x00, 0x00, 0x00, 0x00, 0x00, 0x00, 0x00, 0x00, 0x00, 0x00,
  0x00, 0x00, 0x00, 0x00, 0x00, 0x00, 0x00, 0x00, 0x00, 0x00, 0x00, 0x00,
  0x00, 0x00, 0x00, 0x00, 0x00, 0x00, 0x00, 0x00, 0x00, 0x00, 0x00, 0x00,
  0x00, 0x00, 0x00, 0x00, 0x00, 0x00, 0x00, 0x00, 0x20, 0x00, 0x00, 0x00,
  0x9c, 0x06, 0x38, 0x39, 0xfd, 0xd6, 0xdb, 0x38, 0x26, 0xcd, 0x39, 0x39,
  0x31, 0xdf, 0x45, 0x39, 0xf0, 0xb8, 0x85, 0x39, 0xd0, 0x26, 0x2b, 0x39,
  0x5b, 0x39, 0x2e, 0x39, 0x10, 0x7d, 0x29, 0x39, 0x41, 0x4a, 0x3c, 0x39,
  0x1d, 0xa0, 0x57, 0x39, 0x8a, 0xd7, 0x47, 0x39, 0xf9, 0x9b, 0x1b, 0x39,
  0x21, 0xb6, 0x32, 0x39, 0x24, 0x19, 0x28, 0x39, 0xdd, 0x0a, 0x41, 0x39,
  0x92, 0x33, 0x29, 0x39, 0xcb, 0x21, 0x74, 0x39, 0x54, 0x39, 0x19, 0x39,
  0x5f, 0x43, 0x6e, 0x39, 0x0b, 0x5f, 0x30, 0x39, 0x13, 0xba, 0x35, 0x39,
  0xee, 0x3e, 0x1b, 0x39, 0xff, 0x32, 0x45, 0x39, 0x2d, 0x4f, 0x46, 0x39,
  0x8c, 0x9f, 0x30, 0x39, 0xdd, 0x1d, 0x3a, 0x39, 0xc3, 0x95, 0x0a, 0x39,
  0xda, 0xdd, 0x27, 0x39, 0x0d, 0xf8, 0x25, 0x39, 0xe1, 0xaa, 0x1b, 0x39,
  0x4a, 0x4e, 0x56, 0x39, 0x8c, 0xd3, 0x2f, 0x39, 0x30, 0x00, 0x00, 0x00,
  0x6d, 0x6f, 0x64, 0x65, 0x6c, 0x5f, 0x32, 0x2f, 0x63, 0x6f, 0x6e, 0x76,
  0x32, 0x64, 0x5f, 0x38, 0x2f, 0x42, 0x69, 0x61, 0x73, 0x41, 0x64, 0x64,
  0x2f, 0x52, 0x65, 0x61, 0x64, 0x56, 0x61, 0x72, 0x69, 0x61, 0x62, 0x6c,
  0x65, 0x4f, 0x70, 0x2f, 0x72, 0x65, 0x73, 0x6f, 0x75, 0x72, 0x63, 0x65,
  0x00, 0x00, 0x00, 0x00, 0x01, 0x00, 0x00, 0x00, 0x20, 0x00, 0x00, 0x00,
  0xd2, 0xfe, 0xff, 0xff, 0x00, 0x00, 0x00, 0x01, 0x14, 0x00, 0x00, 0x00,
  0x34, 0x00, 0x00, 0x00, 0x04, 0x00, 0x00, 0x00, 0x00, 0x00, 0x00, 0x09,
  0x44, 0x00, 0x00, 0x00, 0xbc, 0xfe, 0xff, 0xff, 0x08, 0x00, 0x00, 0x00,
  0x14, 0x00, 0x00, 0x00, 0x01, 0x00, 0x00, 0x00, 0x00, 0x00, 0x00, 0x00,
  0x00, 0x00, 0x00, 0x00, 0x00, 0x00, 0x00, 0x00, 0x01, 0x00, 0x00, 0x00,
  0xb4, 0x43, 0xb4, 0x3b, 0x16, 0x00, 0x00, 0x00, 0x6d, 0x6f, 0x64, 0x65,
  0x6c, 0x5f, 0x32, 0x2f, 0x64, 0x65, 0x6e, 0x73, 0x65, 0x5f, 0x32, 0x2f,
  0x4d, 0x61, 0x74, 0x4d, 0x75, 0x6c, 0x00, 0x00, 0x02, 0x00, 0x00, 0x00,
  0x0a, 0x00, 0x00, 0x00, 0x00, 0x02, 0x00, 0x00, 0x3a, 0xff, 0xff, 0xff,
  0x00, 0x00, 0x00, 0x01, 0x14, 0x00, 0x00, 0x00, 0x34, 0x00, 0x00, 0x00,
  0x03, 0x00, 0x00, 0x00, 0x00, 0x00, 0x00, 0x02, 0x5c, 0x00, 0x00, 0x00,
  0x24, 0xff, 0xff, 0xff, 0x08, 0x00, 0x00, 0x00, 0x14, 0x00, 0x00, 0x00,
  0x01, 0x00, 0x00, 0x00, 0x00, 0x00, 0x00, 0x00, 0x00, 0x00, 0x00, 0x00,
  0x00, 0x00, 0x00, 0x00, 0x01, 0x00, 0x00, 0x00, 0xed, 0x0a, 0x48, 0x3a,
  0x2f, 0x00, 0x00, 0x00, 0x6d, 0x6f, 0x64, 0x65, 0x6c, 0x5f, 0x32, 0x2f,
  0x64, 0x65, 0x6e, 0x73, 0x65, 0x5f, 0x32, 0x2f, 0x42, 0x69, 0x61, 0x73,
  0x41, 0x64, 0x64, 0x2f, 0x52, 0x65, 0x61, 0x64, 0x56, 0x61, 0x72, 0x69,
  0x61, 0x62, 0x6c, 0x65, 0x4f, 0x70, 0x2f, 0x72, 0x65, 0x73, 0x6f, 0x75,
  0x72, 0x63, 0x65, 0x00, 0x01, 0x00, 0x00, 0x00, 0x0a, 0x00, 0x00, 0x00,
  0xb6, 0xff, 0xff, 0xff, 0x00, 0x00, 0x00, 0x01, 0x18, 0x00, 0x00, 0x00,
  0x18, 0x00, 0x00, 0x00, 0x02, 0x00, 0x00, 0x00, 0x00, 0x00, 0x00, 0x02,
  0x28, 0x00, 0x00, 0x00, 0x04, 0x00, 0x04, 0x00, 0x04, 0x00, 0x00, 0x00,
  0x17, 0x00, 0x00, 0x00, 0x6d, 0x6f, 0x64, 0x65, 0x6c, 0x5f, 0x32, 0x2f,
  0x66, 0x6c, 0x61, 0x74, 0x74, 0x65, 0x6e, 0x5f, 0x32, 0x2f, 0x43, 0x6f,
  0x6e, 0x73, 0x74, 0x00, 0x01, 0x00, 0x00, 0x00, 0x02, 0x00, 0x00, 0x00,
  0x00, 0x00, 0x16, 0x00, 0x1c, 0x00, 0x18, 0x00, 0x17, 0x00, 0x10, 0x00,
  0x0c, 0x00, 0x08, 0x00, 0x00, 0x00, 0x00, 0x00, 0x00, 0x00, 0x07, 0x00,
  0x16, 0x00, 0x00, 0x00, 0x00, 0x00, 0x00, 0x01, 0x20, 0x00, 0x00, 0x00,
  0x40, 0x00, 0x00, 0x00, 0x01, 0x00, 0x00, 0x00, 0x00, 0x00, 0x00, 0x09,
  0x3c, 0x00, 0x00, 0x00, 0x0c, 0x00, 0x0c, 0x00, 0x00, 0x00, 0x00, 0x00,
  0x08, 0x00, 0x04, 0x00, 0x0c, 0x00, 0x00, 0x00, 0x08, 0x00, 0x00, 0x00,
  0x14, 0x00, 0x00, 0x00, 0x01, 0x00, 0x00, 0x00, 0x80, 0xff, 0xff, 0xff,
  0xff, 0xff, 0xff, 0xff, 0x00, 0x00, 0x00, 0x00, 0x01, 0x00, 0x00, 0x00,
  0x00, 0x00, 0x80, 0x3f, 0x01, 0x00, 0x00, 0x00, 0x78, 0x00, 0x00, 0x00,
  0x04, 0x00, 0x00, 0x00, 0x01, 0x00, 0x00, 0x00, 0x20, 0x00, 0x00, 0x00,
  0x20, 0x00, 0x00, 0x00, 0x03, 0x00, 0x00, 0x00, 0x04, 0x00, 0x00, 0x00,
  0x54, 0x00, 0x00, 0x00, 0x38, 0x00, 0x00, 0x00, 0x18, 0x00, 0x00, 0x00,
  0x04, 0x00, 0x00, 0x00, 0xc8, 0xff, 0xff, 0xff, 0x19, 0x00, 0x00, 0x00,
  0x02, 0x00, 0x00, 0x00, 0x00, 0x00, 0x00, 0x19, 0xd8, 0xff, 0xff, 0xff,
  0x09, 0x00, 0x00, 0x00, 0x04, 0x00, 0x00, 0x00, 0x00, 0x00, 0x00, 0x09,
  0x0c, 0x00, 0x0c, 0x00, 0x0b, 0x00, 0x00, 0x00, 0x00, 0x00, 0x04, 0x00,
  0x0c, 0x00, 0x00, 0x00, 0x16, 0x00, 0x00, 0x00, 0x00, 0x00, 0x00, 0x16,
  0x0c, 0x00, 0x10, 0x00, 0x0f, 0x00, 0x00, 0x00, 0x08, 0x00, 0x04, 0x00,
  0x0c, 0x00, 0x00, 0x00, 0x03, 0x00, 0x00, 0x00, 0x03, 0x00, 0x00, 0x00,
  0x00, 0x00, 0x00, 0x03
};
unsigned int g_magic_wand_model_data_len = 16000;

